DEPTH = 5120;
WIDTH = 32;
ADDRESS_RADIX = HEX;
DATA_RADIX = HEX;
CONTENT
BEGIN
    0000: 3ce4a054;
    0001: 3d26f59e;
    0002: 3d3b03d5;
    0003: 3dbe7921;
    0004: be1d81e9;
    0005: be03819b;
    0006: 3cabc107;
    0007: 3ccbef59;
    0008: bccdea9f;
    0009: bd366739;
    000a: bdec78b7;
    000b: baa97ea7;
    000c: 3ceb76e6;
    000d: 3db41eca;
    000e: bd82bdad;
    000f: be405bbc;
    0010: bd94d836;
    0011: ba8cc9ed;
    0012: 3c9e82c9;
    0013: 3d9d6022;
    0014: be08bc7c;
    0015: bdef0abd;
    0016: bd375600;
    0017: 3c822584;
    0018: bcd16a03;
    0019: be0c8ce9;
    001a: bd479ceb;
    001b: bd598efb;
    001c: 3d78a4c2;
    001d: 3d6216b0;
    001e: 3dbb391a;
    001f: bcba0575;
    0020: bc4ca8a0;
    0021: bd535035;
    0022: 3e0be255;
    0023: bd752e7b;
    0024: bcccd68c;
    0025: 3dbe812f;
    0026: 3daad945;
    0027: bdc339b6;
    0028: bda2f364;
    0029: bceca859;
    002a: bde258e5;
    002b: bdcd63d8;
    002c: bd50c52f;
    002d: 3ba3b5df;
    002e: 3d774b39;
    002f: 3d597499;
    0030: 3c709ae0;
    0031: 3d4dfff9;
    0032: 3cbd1712;
    0033: bd53ff27;
    0034: bce7ee4a;
    0035: bdb34106;
    0036: bdd184e0;
    0037: be36a2c4;
    0038: bd9ce0d9;
    0039: bd93c95d;
    003a: 3c0b8da7;
    003b: bd8c543a;
    003c: 3b98df37;
    003d: 3d0413e2;
    003e: 3cedf0c8;
    003f: 3cf12280;
    0040: bb99426f;
    0041: bce23b3a;
    0042: 3d1bfdbb;
    0043: 3e018d55;
    0044: bd0cc287;
    0045: 3db29fcb;
    0046: 3cffa524;
    0047: bda7ba9a;
    0048: 3b4e096c;
    0049: be08060d;
    004a: 3d6356a7;
    004b: 3cbbe300;
    004c: bc2676f8;
    004d: bd2ad1dd;
    004e: 3cfcf8e4;
    004f: 3d8ae85b;
    0050: bc071ee7;
    0051: 3d8237df;
    0052: 3cb8794e;
    0053: 3c4e0705;
    0054: 3bad0294;
    0055: 3c60b0ce;
    0056: 3d0ce64e;
    0057: 3d6d0a49;
    0058: 3c8a925f;
    0059: 3cada79f;
    005a: 3d6cfbc3;
    005b: 3d66b45d;
    005c: 3db4c590;
    005d: 3e205d07;
    005e: bc4b2d21;
    005f: bc3cb7ef;
    0060: 3bb12fd1;
    0061: 3d7982aa;
    0062: 3d58173d;
    0063: bded68a0;
    0064: 3d10322e;
    0065: 3d629d6e;
    0066: bc3b2833;
    0067: bc8f5a0d;
    0068: 3c17bf64;
    0069: 3d1f7df4;
    006a: bcc4fc9c;
    006b: bd71d7b7;
    006c: 3d6fa31e;
    006d: 3d2ce8dc;
    006e: bdeabeb5;
    006f: bddc8493;
    0070: 3cda402a;
    0071: 3a4405f6;
    0072: bc2566a6;
    0073: 3b6e8c51;
    0074: bdb7cf1a;
    0075: bddb3147;
    0076: bde8230b;
    0077: be4a7d10;
    0078: bb1eb784;
    0079: bd5287b7;
    007a: bcb3ffd1;
    007b: 3dcf9e20;
    007c: 3d1d94cf;
    007d: 3d42c0f7;
    007e: 3d20413c;
    007f: 3ddcb316;
    0080: 3d1a57f9;
    0081: 3bce8f3d;
    0082: bdb884e4;
    0083: 3cf5c94f;
    0084: bc0ec6df;
    0085: 3d02dfd9;
    0086: 3ce53aab;
    0087: 3ce7605c;
    0088: 3d2311d7;
    0089: 3dbc5091;
    008a: bc0250a2;
    008b: 3d269499;
    008c: 3cc8db9b;
    008d: be0670b3;
    008e: bdbbfc14;
    008f: bc9dcd78;
    0090: 3cc9f4e6;
    0091: 3c4d2b1e;
    0092: 3d0611b5;
    0093: b9a829ea;
    0094: 3d6d0c8a;
    0095: 3dd36268;
    0096: bdb439da;
    0097: bdde7927;
    0098: bb9ba3ef;
    0099: bced061e;
    009a: baf82b38;
    009b: bd01c3ef;
    009c: bd4c195f;
    009d: 3de9524e;
    009e: 3dab61ad;
    009f: 3d0068e0;
    00a0: 3d191e97;
    00a1: 3d4c2b87;
    00a2: bd22460c;
    00a3: be20150a;
    00a4: 3cc913b0;
    00a5: bd0f4b68;
    00a6: 3da05d08;
    00a7: bdd3d02e;
    00a8: 3dd09e6e;
    00a9: 3e0f5985;
    00aa: 3d4cd3bf;
    00ab: 3bfe979f;
    00ac: 3c2f1f9d;
    00ad: bd9b3339;
    00ae: 3d507410;
    00af: 3d689cd7;
    00b0: bd00e4b6;
    00b1: bd463a30;
    00b2: 3c170c49;
    00b3: bc98c7dc;
    00b4: bdb3512b;
    00b5: bdf8b166;
    00b6: bc09bbd8;
    00b7: bd88286e;
    00b8: bdebffc3;
    00b9: bdb88301;
    00ba: 3be1dc0e;
    00bb: 3d8f8733;
    00bc: bc833374;
    00bd: 3d85c870;
    00be: 3e23d861;
    00bf: 3da7d7b1;
    00c0: bb7b2f10;
    00c1: bcb8005d;
    00c2: 3d385a3e;
    00c3: bc95c7e2;
    00c4: 3d7e530d;
    00c5: 3d9db6ea;
    00c6: 3daa786e;
    00c7: bd17b1c8;
    00c8: 3dd306fb;
    00c9: bb115119;
    00ca: 3cb9a1f0;
    00cb: 3bbb284d;
    00cc: bdd93597;
    00cd: be32864c;
    00ce: bd740e9d;
    00cf: 3da748fb;
    00d0: bc06d931;
    00d1: 3d60e693;
    00d2: bc41e865;
    00d3: bd1ed6af;
    00d4: 3c910479;
    00d5: 3ca41f87;
    00d6: bd55bf43;
    00d7: 3c9d742e;
    00d8: 3de819e0;
    00d9: 3dc61243;
    00da: bdd60ecb;
    00db: bb51eb5d;
    00dc: 3e33ac42;
    00dd: 3e173194;
    00de: bdef9f93;
    00df: bd850ddf;
    00e0: bc5d3f2b;
    00e1: bd9fdefa;
    00e2: bd14a2ce;
    00e3: 3ddb5fb2;
    00e4: bcde6b5a;
    00e5: bda5495e;
    00e6: 3b840424;
    00e7: 3e00561d;
    00e8: bc0414a1;
    00e9: be122a48;
    00ea: be0b106e;
    00eb: 3dff3dc0;
    00ec: bd0df073;
    00ed: bd6f49c7;
    00ee: 3da0045b;
    00ef: 3d9cec58;
    00f0: 3d1add8d;
    00f1: bd414456;
    00f2: bc452b6f;
    00f3: 3dbbef2b;
    00f4: bc7d8736;
    00f5: 3ca32f25;
    00f6: bcd287fb;
    00f7: 3c313de8;
    00f8: 3dd148ec;
    00f9: bc9eb531;
    00fa: bda4211b;
    00fb: bd5e0138;
    00fc: 3af39f93;
    00fd: bc86c02a;
    00fe: 3cb3703a;
    00ff: bc7bcd11;
    0100: bd93d83f;
    0101: 3d8c8963;
    0102: 3d37e171;
    0103: bc549235;
    0104: bdd36765;
    0105: bdb23e71;
    0106: 3dc2984b;
    0107: bc9b1a4a;
    0108: be45ad8d;
    0109: 3ba298d8;
    010a: bd9a1358;
    010b: bd965583;
    010c: bb992a50;
    010d: 3c479bbd;
    010e: 3d9b934e;
    010f: 3dc57616;
    0110: bbc79e33;
    0111: 3b829a58;
    0112: 3d277d82;
    0113: bb517df4;
    0114: be1ca2bb;
    0115: be190fc2;
    0116: 3c8b1b8b;
    0117: 3c0dc53a;
    0118: be4be799;
    0119: bdf98100;
    011a: bc3f7923;
    011b: 3d747b9e;
    011c: be39adc3;
    011d: bcc1c4ac;
    011e: 3df01196;
    011f: 3e12eb18;
    0120: bc1dbcce;
    0121: bd0782e8;
    0122: 3ca8479a;
    0123: 3bf1cb42;
    0124: 3d3f004a;
    0125: 3d0370ea;
    0126: 3d228df0;
    0127: 3c75c848;
    0128: 3cf71b39;
    0129: b9e91e12;
    012a: bca81486;
    012b: 3d188c7e;
    012c: bd12fe31;
    012d: be06f4e2;
    012e: bd615a2c;
    012f: 3cc889d1;
    0130: 3bc75e6e;
    0131: bc127031;
    0132: bc052a1c;
    0133: bdb1583f;
    0134: bddc3f4c;
    0135: bccb39b9;
    0136: bc3ec3c1;
    0137: bdd74355;
    0138: be5095ea;
    0139: 3cb8a279;
    013a: bd167219;
    013b: be1d0678;
    013c: bdca50f6;
    013d: bd9f4e8e;
    013e: 3d99d2df;
    013f: 3e2ac48e;
    0140: 3bea52bb;
    0141: bc5c48a1;
    0142: 3cca68dd;
    0143: 3db02a22;
    0144: bd8f0781;
    0145: bd7a9da7;
    0146: 3d294453;
    0147: 3cbb9941;
    0148: 3cf0a601;
    0149: bc7cf5e5;
    014a: bd939435;
    014b: 3d938e59;
    014c: bb3fe6b2;
    014d: 3c638a4a;
    014e: bd4449c9;
    014f: be43096b;
    0150: bba10f08;
    0151: 3d133742;
    0152: 3b9750f3;
    0153: bd551e2b;
    0154: 3d0f718d;
    0155: bc820d0b;
    0156: bda421fa;
    0157: bc8b7dea;
    0158: bc29d62a;
    0159: bda54d02;
    015a: bc15ef80;
    015b: bc986561;
    015c: bdb618b7;
    015d: be5d71b4;
    015e: bc6ba6f0;
    015f: 3e3604bb;
    0160: 39977c0e;
    0161: 3d4367d0;
    0162: bc62dee9;
    0163: be18bce5;
    0164: 3d4a5224;
    0165: 3c47db46;
    0166: bd6af8af;
    0167: be18bd4f;
    0168: 3dac7901;
    0169: 3d514928;
    016a: 3dae22d1;
    016b: bd8bc6c0;
    016c: bd5cbe48;
    016d: 3d7b5343;
    016e: 3d6fc601;
    016f: 3cc1bec1;
    0170: 3ce5f791;
    0171: 3dc5a686;
    0172: 3dd9bc28;
    0173: 3c51254f;
    0174: bd4609e6;
    0175: be03060a;
    0176: bd24a183;
    0177: 3c0e56ed;
    0178: be562c08;
    0179: bddc4ae8;
    017a: 3ddcda1a;
    017b: 3d3992c4;
    017c: be66e2af;
    017d: bd218194;
    017e: 3dbe0868;
    017f: bc671204;
    0180: 3d064ab0;
    0181: 3c813600;
    0182: ba3b9399;
    0183: 3d94b16c;
    0184: 3de91549;
    0185: bcb429f9;
    0186: 3d8c89df;
    0187: bb68bf1f;
    0188: 3c07fc2a;
    0189: 398e69d0;
    018a: 3d628991;
    018b: bca4a1c9;
    018c: 3d54d077;
    018d: 3dbee930;
    018e: 3d47dca6;
    018f: be31a604;
    0190: bc46caa5;
    0191: 3d9a7784;
    0192: 3c3a3d0d;
    0193: bdb6ddd6;
    0194: 3d737c58;
    0195: 3bdb8928;
    0196: bd844745;
    0197: be5fc627;
    0198: 3d65c474;
    0199: bc9e6c6d;
    019a: be17ed1a;
    019b: 3d6d3805;
    019c: bd8d9e1d;
    019d: bb20eff3;
    019e: 3deac1a4;
    019f: 3e102ee7;
    01a0: bc75f171;
    01a1: 3c86589e;
    01a2: 3d9bd9d7;
    01a3: 3d804359;
    01a4: bd948e4c;
    01a5: bdb102f1;
    01a6: 3ceef469;
    01a7: bd650549;
    01a8: 3c8044fb;
    01a9: 3cc72fae;
    01aa: 3c8d3621;
    01ab: be462d84;
    01ac: 3d98f2b5;
    01ad: 3dc28075;
    01ae: 3d64b153;
    01af: be2fd656;
    01b0: 3d6bad08;
    01b1: 3c2e2e31;
    01b2: 3c28f3e1;
    01b3: bde33c93;
    01b4: bcd85c5c;
    01b5: bc95acf3;
    01b6: bcc69940;
    01b7: bcd7ab5f;
    01b8: 3d712016;
    01b9: 3c8690ce;
    01ba: 3de8036d;
    01bb: 3d0bcdb4;
    01bc: 3c63d1a4;
    01bd: be01feab;
    01be: bd78a336;
    01bf: 3c7c3d01;
    01c0: 3b4c6170;
    01c1: 3ccac30d;
    01c2: bce8459c;
    01c3: 3d194498;
    01c4: 3c1f5e51;
    01c5: bc5b5b08;
    01c6: 3dded5dd;
    01c7: 3dacf8c9;
    01c8: 3cd7f843;
    01c9: 3cbb0f46;
    01ca: 3d32fd2e;
    01cb: 3daecc09;
    01cc: 3def7100;
    01cd: bd820749;
    01ce: bdc83aba;
    01cf: bdef0682;
    01d0: 3c5dc34d;
    01d1: 3c462db8;
    01d2: 3cfd0879;
    01d3: 3d745899;
    01d4: 3c8d7eb2;
    01d5: 3d4a69fc;
    01d6: bbf60a48;
    01d7: bdebb7f5;
    01d8: 3cd9cf41;
    01d9: 3cd4cd54;
    01da: bd20288d;
    01db: 3c910068;
    01dc: 3d820acc;
    01dd: 3d93eb21;
    01de: 3e22a06d;
    01df: bc03982e;
    01e0: 3c0e11c6;
    01e1: bd546c71;
    01e2: 3d73ff97;
    01e3: 3d80ec5a;
    01e4: 3d7bf3f7;
    01e5: babe8572;
    01e6: 3d7b8fc1;
    01e7: 3dc6d473;
    01e8: 3dd1b825;
    01e9: bd1381f9;
    01ea: 3d98d2ea;
    01eb: 3b80880f;
    01ec: 3dc396be;
    01ed: bd948538;
    01ee: be5371a1;
    01ef: bd68c097;
    01f0: 3ca277e9;
    01f1: 3c59b4db;
    01f2: 3d6382e5;
    01f3: 3d43ac13;
    01f4: bc95a7a2;
    01f5: bc9b5d08;
    01f6: b830afc7;
    01f7: bcb9990b;
    01f8: bcdc9898;
    01f9: 3dbaa030;
    01fa: 3cc50b48;
    01fb: bdae12b2;
    01fc: 3941ab8c;
    01fd: 3e2990a1;
    01fe: bd473844;
    01ff: bdf41d2b;
    0200: bc9dec09;
    0201: 3d9875e7;
    0202: 3da71d95;
    0203: bda78a00;
    0204: be6b2533;
    0205: be0ab222;
    0206: bdc39edb;
    0207: bd9cfaa0;
    0208: be51b562;
    0209: bd512af7;
    020a: be1c3d85;
    020b: bde500c0;
    020c: 3c82bc5c;
    020d: bcf8d913;
    020e: 3e046a9c;
    020f: 3c877949;
    0210: bda3ea07;
    0211: bdf6e776;
    0212: bd00cab1;
    0213: 3d7a6b8b;
    0214: bdc99ed7;
    0215: be2d3879;
    0216: bda410e7;
    0217: bd79c745;
    0218: bde7f582;
    0219: be115b24;
    021a: 3d32e1b4;
    021b: bd7b249d;
    021c: bc21b895;
    021d: 3da2c3c1;
    021e: 3e1e3475;
    021f: bc0f110d;
    0220: bdc6b83d;
    0221: 3bd6c879;
    0222: 3db6f973;
    0223: 3e0cda32;
    0224: 3d4441d8;
    0225: bd62abaf;
    0226: 3b411958;
    0227: 3d925d72;
    0228: 3ba4503e;
    0229: bd9b08ab;
    022a: bd30ff11;
    022b: 3caec889;
    022c: 3d286e54;
    022d: 3da06ad3;
    022e: bd82d0e8;
    022f: bd7cd8fa;
    0230: 3cb5dd5e;
    0231: 3d85e9ff;
    0232: 3c4ecdbe;
    0233: be76e532;
    0234: bc937fb4;
    0235: bdd2634d;
    0236: be803bee;
    0237: bcaa6880;
    0238: 3cfc616a;
    0239: be158081;
    023a: bd575b54;
    023b: 3d9d9b3f;
    023c: 3c40b117;
    023d: bca4a932;
    023e: 3da5a2d9;
    023f: bcbb58ab;
    0240: 3ca93382;
    0241: bbd19476;
    0242: be21a732;
    0243: bd4beea3;
    0244: bd252851;
    0245: 3cc420b0;
    0246: 3d34191a;
    0247: 3d62d0fc;
    0248: 3d093471;
    0249: 3deeee6b;
    024a: 3d715622;
    024b: bcaca79e;
    024c: 3da01a9a;
    024d: 3e13310a;
    024e: 3dc5ffee;
    024f: bdb54433;
    0250: 3ce22bb7;
    0251: 3eaa1523;
    0252: 3e962cbb;
    0253: 3cc95756;
    0254: 3e06f391;
    0255: bb19ec78;
    0256: 3e999ec4;
    0257: 3c1bbdef;
    0258: 3cdbefa9;
    0259: 3d8d03b4;
    025a: 3e19d3e8;
    025b: 3d06d937;
    025c: 3c4fd0dd;
    025d: 3d643038;
    025e: 3d86f20f;
    025f: bd894dbc;
    0260: bd3edaa9;
    0261: 3b494bf7;
    0262: 3e037705;
    0263: 3e103733;
    0264: bdfd910e;
    0265: bd928458;
    0266: 3c902136;
    0267: 3e271aec;
    0268: 3b277883;
    0269: bc2b4af0;
    026a: 3dd3fa15;
    026b: 3cac997a;
    026c: 3cb63d0b;
    026d: bd4c1736;
    026e: bdadb2d2;
    026f: bb4d3500;
    0270: bdb12058;
    0271: 3cd4c05b;
    0272: bd247ed8;
    0273: be788d20;
    0274: bd94941c;
    0275: bd772af5;
    0276: bd6d9985;
    0277: be9193dc;
    0278: bd2b944f;
    0279: bc2f5979;
    027a: be24cfb5;
    027b: bdf48d00;
    027c: 3dd5bcde;
    027d: 3d191129;
    027e: 3d80960a;
    027f: 3df0bdea;
    0280: bd8edeef;
    0281: 3e06555a;
    0282: 3e1abd73;
    0283: 3e11f5ef;
    0284: be14e6e4;
    0285: 3d9539ff;
    0286: 3db1cec0;
    0287: 3bce1c28;
    0288: bd548b36;
    0289: bb850ce3;
    028a: bcaca5bd;
    028b: bd6c6ba6;
    028c: 3ce35459;
    028d: 3d0bf180;
    028e: bd2423f9;
    028f: bcf27060;
    0290: be390239;
    0291: bd81cc84;
    0292: 3cb08fc1;
    0293: bdefc69b;
    0294: bd45fffa;
    0295: bb4c992e;
    0296: be54d807;
    0297: bdaca275;
    0298: bda316ff;
    0299: 3c00640a;
    029a: be2f8b66;
    029b: 3e059dc0;
    029c: 3cc207e8;
    029d: bd916aad;
    029e: be4d61dd;
    029f: 3dc61e96;
    02a0: bdadd8d9;
    02a1: 3d20d4a9;
    02a2: 3e6696a1;
    02a3: 3d9cae5f;
    02a4: bc3cb36f;
    02a5: bbd6fac9;
    02a6: bd743a02;
    02a7: 3daa2aed;
    02a8: 3c2622ca;
    02a9: 3db987b6;
    02aa: 3d8b81a7;
    02ab: bd501028;
    02ac: bce218ed;
    02ad: 3e7d5ce2;
    02ae: bdee5b1b;
    02af: be921f2e;
    02b0: 3cb515b2;
    02b1: be27b32c;
    02b2: bdd54b79;
    02b3: 3dcd5bfa;
    02b4: 3bfd523e;
    02b5: bdc4ae7c;
    02b6: be1cc0e9;
    02b7: bd9b6411;
    02b8: bcf51fab;
    02b9: bcf9c830;
    02ba: bdedac33;
    02bb: 3c83f26a;
    02bc: bc7e2f2e;
    02bd: bc173e84;
    02be: 3d93b1d9;
    02bf: 3d8802a1;
    02c0: be5001c0;
    02c1: be1b4576;
    02c2: bd865a6a;
    02c3: 3df59c63;
    02c4: bd2e4e9e;
    02c5: bbfd9713;
    02c6: 3cf1155b;
    02c7: 3dd5c0fe;
    02c8: bdc1529b;
    02c9: 3cec377b;
    02ca: 3c46b55c;
    02cb: bb8a8f32;
    02cc: 3b37ee3f;
    02cd: 3d942082;
    02ce: bda21373;
    02cf: bd8b2895;
    02d0: 3d2a3a9a;
    02d1: 3da2347f;
    02d2: 3e4d447c;
    02d3: 3df1e737;
    02d4: 3d9c1542;
    02d5: be174366;
    02d6: 3c8d18dd;
    02d7: 3d4dc5c3;
    02d8: bd913eda;
    02d9: be01111a;
    02da: 3ccffc16;
    02db: bce2db91;
    02dc: bd315dc5;
    02dd: 3e08c606;
    02de: 3c8db648;
    02df: bd1164be;
    02e0: bdf1814e;
    02e1: 3d39a178;
    02e2: bdb96b7a;
    02e3: bdfc9530;
    02e4: 3c8aae4b;
    02e5: 3dce0cf1;
    02e6: bbd9b135;
    02e7: be21d337;
    02e8: bd34feb9;
    02e9: 3d4ce385;
    02ea: bddcdf62;
    02eb: bc65932c;
    02ec: bcf19c63;
    02ed: 3ca5c30d;
    02ee: bce28708;
    02ef: 3bb23693;
    02f0: bd914341;
    02f1: 3dd46579;
    02f2: bd0b07b4;
    02f3: bdd8bbee;
    02f4: be086b9f;
    02f5: 3de7fdc0;
    02f6: 3d9b0474;
    02f7: bd966820;
    02f8: bd65c1a8;
    02f9: 3dfd9154;
    02fa: 3d6caea8;
    02fb: be013150;
    02fc: bd089f60;
    02fd: 3df2b613;
    02fe: 3d403b55;
    02ff: bdded32d;
    0300: bde2fe6d;
    0301: bbbaa625;
    0302: 3d54028a;
    0303: 3dfcfff5;
    0304: 3cdd7596;
    0305: 3bd016df;
    0306: bd03bd96;
    0307: 3d38f8fb;
    0308: 3ca37b1b;
    0309: be0dfba7;
    030a: 3cda1d26;
    030b: 3d4ad0f7;
    030c: be0e276f;
    030d: 3dc3f214;
    030e: 3d83b63b;
    030f: 3c977d59;
    0310: bd407d12;
    0311: bae8e4ac;
    0312: bc945d22;
    0313: 3da5f69a;
    0314: 3b8f3dcf;
    0315: bdaf61d4;
    0316: bd95c355;
    0317: 3cac517f;
    0318: 3c86eb61;
    0319: bd242a55;
    031a: 3d586534;
    031b: 3cc737df;
    031c: bd3f6bf6;
    031d: bc8171b2;
    031e: 3e102dae;
    031f: bc3b65e2;
    0320: be0d66a1;
    0321: 3d6efc75;
    0322: 3d8f985c;
    0323: 3dfb36e8;
    0324: bd202655;
    0325: 3e04fcf8;
    0326: 3dba3912;
    0327: 3d5d28af;
    0328: bdac7725;
    0329: bc4e1263;
    032a: bdbf63bf;
    032b: bc9ac872;
    032c: bd83eb92;
    032d: 3c191079;
    032e: bc155780;
    032f: bcf823e9;
    0330: bd41dd8c;
    0331: bdb038bb;
    0332: bcac4191;
    0333: 3db54edf;
    0334: ba716015;
    0335: be29d434;
    0336: 3d3aac09;
    0337: bceec4d0;
    0338: 3d56227e;
    0339: bdc46d81;
    033a: bc2b3eef;
    033b: 3d0dbb58;
    033c: 3cd43fc6;
    033d: bb8c57fe;
    033e: 3d8dd033;
    033f: bdd1d75b;
    0340: bcdc4ddc;
    0341: 3d1f0b52;
    0342: 3c72588c;
    0343: be24c8f0;
    0344: bda196cb;
    0345: 3a05af9d;
    0346: bd12d263;
    0347: be038ecd;
    0348: be00eb09;
    0349: bc867ec2;
    034a: bba1c6a8;
    034b: bdbcec00;
    034c: bcbc7a1a;
    034d: bc2398c8;
    034e: 3d1d5298;
    034f: 3db0d9a3;
    0350: bdc150f9;
    0351: 3b661d2f;
    0352: 3e515d7a;
    0353: 3d01d6f2;
    0354: bcb11041;
    0355: 3e03028c;
    0356: 3da4a79a;
    0357: be0a9b18;
    0358: 3c1c6bce;
    0359: 3d781396;
    035a: bc353d0d;
    035b: 3dc75378;
    035c: bc5e3c89;
    035d: 3d39483d;
    035e: bd0ce1d3;
    035f: be22b05a;
    0360: bda323c4;
    0361: bcc98cb5;
    0362: 3dd7f15d;
    0363: 3d978647;
    0364: bcfad01a;
    0365: 3dd9c029;
    0366: 3d9796ff;
    0367: 3da02a32;
    0368: 3da43d3f;
    0369: bbd80e18;
    036a: bda1fc9c;
    036b: bb02f6f4;
    036c: bbd2c737;
    036d: 3d69e005;
    036e: 3df8eaf5;
    036f: be3f7a29;
    0370: bdcec170;
    0371: bc185613;
    0372: bbeccafa;
    0373: bd413f19;
    0374: bcdf8e08;
    0375: bd7fa1bd;
    0376: bca5541a;
    0377: be076853;
    0378: bd285d4d;
    0379: bd864003;
    037a: 3e002c5d;
    037b: 3ded00be;
    037c: bd746513;
    037d: bdc95a5c;
    037e: 3deb6312;
    037f: 3d294e13;
    0380: 3bad0293;
    0381: 3e248a9f;
    0382: 3e688603;
    0383: 3dae9356;
    0384: 3d9905fa;
    0385: 3b324301;
    0386: 3e3751a0;
    0387: 3d80b7cf;
    0388: bc8eb791;
    0389: 3d65ddbd;
    038a: bcb4b22a;
    038b: 3da2b6a4;
    038c: 3d95207e;
    038d: 3d2cf129;
    038e: 3e0805f2;
    038f: 3daf82f1;
    0390: be5cfa77;
    0391: bc9bd7ad;
    0392: 3dbd6564;
    0393: 3d3e0e89;
    0394: bd1a3013;
    0395: 3d92baeb;
    0396: bd149d92;
    0397: bdfbb616;
    0398: 3d4034b9;
    0399: bc0b57c8;
    039a: bd7751f6;
    039b: be597eae;
    039c: 3c8e8f93;
    039d: 3dec8f97;
    039e: 3ccdd9a2;
    039f: 3d41ac94;
    03a0: bdf53a14;
    03a1: bd3bb20e;
    03a2: bcb7180a;
    03a3: bb646275;
    03a4: bd84d566;
    03a5: be474ded;
    03a6: be2ecf53;
    03a7: bdb01c7e;
    03a8: bd8527c7;
    03a9: bdad8b2b;
    03aa: be0434ae;
    03ab: 3dbaee0a;
    03ac: bdac5b86;
    03ad: be1e9655;
    03ae: bd20f7a9;
    03af: 3df9dfdf;
    03b0: bdd0a88e;
    03b1: 3b8c0de8;
    03b2: 3e2f6ffe;
    03b3: 3de0192b;
    03b4: bdeea595;
    03b5: 3c376fbc;
    03b6: 3d288af3;
    03b7: 3d5026b8;
    03b8: 3c520d52;
    03b9: 3da9c7a4;
    03ba: bd7e1e67;
    03bb: bc9ac6e4;
    03bc: bc87d050;
    03bd: bd2dc4c1;
    03be: bd0f771c;
    03bf: bda50725;
    03c0: bdab00b9;
    03c1: 3d935f10;
    03c2: 3e3c7fbd;
    03c3: bc1ee5aa;
    03c4: be4a15d0;
    03c5: 3be1e10a;
    03c6: 3b6f67c3;
    03c7: bbe448d7;
    03c8: 3c60ecb6;
    03c9: 3daa38fb;
    03ca: bc8e8a96;
    03cb: bd1238a0;
    03cc: bd95e39c;
    03cd: 3deb7bf6;
    03ce: 3d53bf3c;
    03cf: bd4f55e0;
    03d0: bdf46fee;
    03d1: 3e278170;
    03d2: 3d724a4d;
    03d3: 3e34af57;
    03d4: be4329e0;
    03d5: 3c056e31;
    03d6: 3e211214;
    03d7: 3e2a9f9d;
    03d8: bdc83388;
    03d9: 3d5e1421;
    03da: bb57b2c6;
    03db: 3df304ac;
    03dc: 3c980738;
    03dd: 3d4826fb;
    03de: 3cc66b5d;
    03df: bd1b49ab;
    03e0: bd87900b;
    03e1: 3de3ef3d;
    03e2: 3e0a8a4c;
    03e3: 3daf62c2;
    03e4: 3d167ab1;
    03e5: 3b08d6e3;
    03e6: 3da295cc;
    03e7: 3d27192a;
    03e8: 3c5d4617;
    03e9: 3dc83d5d;
    03ea: 3d2379e9;
    03eb: bd255f4e;
    03ec: 3a255ec3;
    03ed: 3e0dc372;
    03ee: 3e4ea2a3;
    03ef: be0b614f;
    03f0: bb0855b5;
    03f1: 3e07307f;
    03f2: bd630570;
    03f3: bc25f9b1;
    03f4: bd03b163;
    03f5: 3da6a7be;
    03f6: 3d78a601;
    03f7: 3a4695e4;
    03f8: bc82947f;
    03f9: bcf7f3cb;
    03fa: 3c82bde5;
    03fb: 3df18a96;
    03fc: 3cbd8fd4;
    03fd: bc85f29f;
    03fe: 3d974775;
    03ff: 3d6339f5;
    0400: bd8af890;
    0401: 3dc3c122;
    0402: bb27bf88;
    0403: bc6bc031;
    0404: bddbabda;
    0405: bdb0c2be;
    0406: bd0027bd;
    0407: bd4865f2;
    0408: be48bc94;
    0409: be0e78bc;
    040a: 3d2cf03d;
    040b: bcae8831;
    040c: 3cc0bcf1;
    040d: 3d318580;
    040e: 3da61fce;
    040f: 3e85a347;
    0410: 3d3b82a3;
    0411: bc979e6c;
    0412: bd89aeca;
    0413: be4ed4b6;
    0414: bdded9b0;
    0415: 3d2f2ab2;
    0416: bcf9a6e4;
    0417: 3d0986c7;
    0418: be08ac1e;
    0419: 3c96fa16;
    041a: 3d60e39d;
    041b: 3db04ccb;
    041c: bc1b2011;
    041d: 3daab334;
    041e: 3e0509db;
    041f: 3e2f1750;
    0420: 3e465b9c;
    0421: 3dbaff37;
    0422: bd3eeb7a;
    0423: bdfc3494;
    0424: bd066d3a;
    0425: 3d97845f;
    0426: bda48cfb;
    0427: bd91232b;
    0428: 3cc41510;
    0429: bde32995;
    042a: bd465d79;
    042b: bdb5249a;
    042c: 3c4fbaa4;
    042d: 3e20bde4;
    042e: 3d60ba4a;
    042f: 3d920fae;
    0430: 3e13a58e;
    0431: 3d36f836;
    0432: bcf5782e;
    0433: 3c79f7b0;
    0434: 3dead14c;
    0435: 3d726387;
    0436: 3d910574;
    0437: bcf122a2;
    0438: bbf1775e;
    0439: bd49f209;
    043a: 3d60dd29;
    043b: 3e465574;
    043c: be242fac;
    043d: bd9c4e2f;
    043e: bc8a2dbf;
    043f: 3e986f19;
    0440: 3c7ea64c;
    0441: bcd5dd0e;
    0442: bcf039f7;
    0443: be7536b1;
    0444: 3d670b43;
    0445: 3b396eae;
    0446: bd8a353b;
    0447: bdc5f0a7;
    0448: 3de9c1d5;
    0449: 3e29f4f0;
    044a: bd961b07;
    044b: 3da44e5c;
    044c: 3da4e906;
    044d: 3d941daa;
    044e: 3d7f5206;
    044f: 3e7c0565;
    0450: bdd910ea;
    0451: bdb684af;
    0452: bdbacf15;
    0453: 3d162585;
    0454: bdfbc054;
    0455: bd69783f;
    0456: 3e0ceacc;
    0457: 3d82cf30;
    0458: bd0751f6;
    0459: be30d205;
    045a: 3dbd5905;
    045b: bd3d31da;
    045c: 3e105d9e;
    045d: bdb4b2d5;
    045e: bd8ecf46;
    045f: bd810803;
    0460: bdae8706;
    0461: bd5dc38c;
    0462: bdf9e6ba;
    0463: be5d6a05;
    0464: 3d148051;
    0465: 3d7d0c50;
    0466: 3dd7a144;
    0467: 3d09fcf4;
    0468: 3de47de5;
    0469: 3cf12e92;
    046a: 3c6e3ae6;
    046b: 3d24e50e;
    046c: 3df46c72;
    046d: 3e092f59;
    046e: 3e066ba0;
    046f: bca394cd;
    0470: 3d9c6463;
    0471: 3cf55b12;
    0472: bd7f4c6a;
    0473: bc8e06df;
    0474: 3def83ff;
    0475: bdad7ddf;
    0476: bd94dcdc;
    0477: be1a4f7b;
    0478: 3d3fcb0a;
    0479: bc4cd9aa;
    047a: bd476fc3;
    047b: 3e10b8fc;
    047c: 3db3e62c;
    047d: ba9a23b6;
    047e: bd840ff7;
    047f: 3e1e89fe;
    0480: bac5ec81;
    0481: bd2a4c9e;
    0482: 3d14352d;
    0483: 3db670a1;
    0484: bd6e6ab7;
    0485: 3d778bca;
    0486: bbcb806c;
    0487: bcdf599b;
    0488: bcb3594e;
    0489: bd48fb56;
    048a: bd3a6f6b;
    048b: be1aff39;
    048c: 3d1b6785;
    048d: be0a894c;
    048e: be452f08;
    048f: be09778c;
    0490: bda6b00d;
    0491: 3a8cf239;
    0492: bdfea378;
    0493: bd5b65cf;
    0494: 3da73e94;
    0495: 3d3deb06;
    0496: 3cb28557;
    0497: 3c5297e7;
    0498: 3e5099bd;
    0499: 3cf95888;
    049a: 3d8b8f6f;
    049b: 3e0664b8;
    049c: bbcdd784;
    049d: 3cb6d315;
    049e: 3e1218ac;
    049f: 3e5b30af;
    04a0: 3d0642ad;
    04a1: 3dd27fcf;
    04a2: 3ba71e03;
    04a3: be079ba3;
    04a4: 3b9de99e;
    04a5: bca9f239;
    04a6: 3d011012;
    04a7: 3d283ccc;
    04a8: 3e3136b9;
    04a9: be1a716e;
    04aa: 3e0cb55e;
    04ab: bce48a1e;
    04ac: 3e140a26;
    04ad: be374431;
    04ae: bd99d853;
    04af: be34136d;
    04b0: 3ca89e9e;
    04b1: 3c1619b1;
    04b2: 3a8be4b3;
    04b3: be3a7a33;
    04b4: 3e407a3f;
    04b5: 3cfc25fb;
    04b6: bdaf8b43;
    04b7: be02eb31;
    04b8: be461724;
    04b9: bd31d49c;
    04ba: bcb30d46;
    04bb: 3d8f4591;
    04bc: bdef1b22;
    04bd: bc649f86;
    04be: 3e0b559e;
    04bf: 3da9fc91;
    04c0: 3dc7a1ed;
    04c1: 3e0d89ee;
    04c2: 3d9ad0c1;
    04c3: bccd9476;
    04c4: bd8b11f6;
    04c5: bda24e05;
    04c6: 3d8bebf5;
    04c7: 3ce649a4;
    04c8: bdd82f7d;
    04c9: be073899;
    04ca: bd5ff9f9;
    04cb: bcc4d0ff;
    04cc: bdbf7538;
    04cd: be4dfa0a;
    04ce: bdb6b831;
    04cf: 3dd82fca;
    04d0: bde1800f;
    04d1: 3c8b2ed0;
    04d2: bc41348c;
    04d3: bc9a79f3;
    04d4: be57fb72;
    04d5: bd95596d;
    04d6: 3d92391e;
    04d7: 3d88a482;
    04d8: be7fca90;
    04d9: be148ab5;
    04da: 3d39c2d8;
    04db: bc201f57;
    04dc: 3c574ef3;
    04dd: 3df29538;
    04de: bc01f261;
    04df: be1e5f7e;
    04e0: 3c9bc8e1;
    04e1: 3db96a47;
    04e2: 3e114490;
    04e3: 3d5cfb28;
    04e4: 3ded8912;
    04e5: 3cfbe9ba;
    04e6: 3b95f185;
    04e7: bdf581c2;
    04e8: bdf27fd1;
    04e9: be1ba4dc;
    04ea: bd4eceda;
    04eb: bda79367;
    04ec: bdb9be3c;
    04ed: bd982ec0;
    04ee: 3de2e409;
    04ef: 3eaff4d2;
    04f0: bb5230e4;
    04f1: 3e40dd33;
    04f2: 3e2a55fa;
    04f3: 3d9a52d2;
    04f4: 3d1f6b9c;
    04f5: 3d852857;
    04f6: bd4887e8;
    04f7: bbcbd500;
    04f8: be2200e4;
    04f9: bc8f991d;
    04fa: be19e328;
    04fb: be2fd0f2;
    04fc: 3d43f8ab;
    04fd: 3dbe9163;
    04fe: 3ddb5357;
    04ff: 3c87f493;
    0500: 399be679;
    0501: 3cc4c4a8;
    0502: 3cd7dbf0;
    0503: be10956f;
    0504: 3e00d5a1;
    0505: bd1b5767;
    0506: bd68d0c7;
    0507: bd90c537;
    0508: be35d95f;
    0509: be5313bd;
    050a: bd37e92e;
    050b: 3d470e4b;
    050c: 3beb8b49;
    050d: 3d6d7008;
    050e: 3e0b1453;
    050f: 3dd99289;
    0510: 3dbbcb00;
    0511: 3d91ae40;
    0512: bba7651d;
    0513: bd2ea194;
    0514: 3e19a9eb;
    0515: 3e2ea298;
    0516: 3cb508b6;
    0517: bc8d66af;
    0518: bdf6969e;
    0519: be8820d5;
    051a: be3bde66;
    051b: 3e165214;
    051c: be6e58f1;
    051d: bd21b7d9;
    051e: 3dad8905;
    051f: 3e51f4dd;
    0520: 3c1b671f;
    0521: 3d8d51d2;
    0522: 3c97d8f5;
    0523: 3ca2b626;
    0524: be01ae0e;
    0525: 3cd1553b;
    0526: 3cec5a97;
    0527: bb4afed5;
    0528: bda15bdf;
    0529: bdad7ee8;
    052a: 3d750814;
    052b: bd9d0f05;
    052c: bd8fe2fa;
    052d: bdab20c6;
    052e: 3e10b801;
    052f: 3c05023c;
    0530: 3e3007dc;
    0531: 3cde440d;
    0532: bd930294;
    0533: be04a9ea;
    0534: 3e59d169;
    0535: 3bd63399;
    0536: bdc385db;
    0537: 3d5fec20;
    0538: bd9f34ea;
    0539: bd8a877c;
    053a: bb0a33ff;
    053b: 3e054b39;
    053c: bdf6db0e;
    053d: 3d1eea5c;
    053e: 3adae07d;
    053f: 3b271fa0;
    0540: be08633a;
    0541: 3d2fcf53;
    0542: 3de4dbf0;
    0543: 3dc83405;
    0544: bd83af4e;
    0545: bcc71e56;
    0546: bcfd9388;
    0547: bb2c4dcc;
    0548: be5737db;
    0549: be973555;
    054a: be6054ef;
    054b: be10b3b1;
    054c: bd422a9c;
    054d: bdf256af;
    054e: 3d98e645;
    054f: 3e13425a;
    0550: 3cef533b;
    0551: 3ce5d117;
    0552: 3cdb8044;
    0553: 3c16d815;
    0554: 3d7d6d9c;
    0555: bccf0876;
    0556: 3bd3e286;
    0557: 3d844585;
    0558: 3dc49561;
    0559: 3e095d20;
    055a: 3d975831;
    055b: bcfb4ec5;
    055c: 3d805736;
    055d: bd02e25e;
    055e: bdc3681f;
    055f: be16b202;
    0560: 3c4ba361;
    0561: be1df3c4;
    0562: be52e10e;
    0563: bd6335c1;
    0564: 3e0a7afd;
    0565: bdffc3e0;
    0566: bd01ee27;
    0567: 3dec95aa;
    0568: 3dc681c4;
    0569: bdb4ce3c;
    056a: 3dc9705b;
    056b: 3de82c09;
    056c: 3e28f033;
    056d: 3b80b5c7;
    056e: 3d887c32;
    056f: be1e4185;
    0570: 3df55dc6;
    0571: 3e0a24e2;
    0572: 3bf6a4a8;
    0573: bd283442;
    0574: 3e49c1be;
    0575: 3d95df53;
    0576: 3de19e8a;
    0577: 3c599824;
    0578: 3c9aa8b1;
    0579: 3c3058a5;
    057a: bdfb31fe;
    057b: 3e1717c3;
    057c: beaaceae;
    057d: bddb9159;
    057e: 3beb3a61;
    057f: 3deff36e;
    0580: 3dc2c15f;
    0581: bd74641b;
    0582: 3de82df7;
    0583: 3e001663;
    0584: bafffc4f;
    0585: bd2e912e;
    0586: 3d7a65ad;
    0587: 3d8235b4;
    0588: bc3f08eb;
    0589: be96a1cf;
    058a: bc85982d;
    058b: bbbf75d4;
    058c: bd8a7215;
    058d: be0295bc;
    058e: be4d8d15;
    058f: bd38debf;
    0590: 3df022d5;
    0591: 3cd16781;
    0592: 3c830806;
    0593: be8edb04;
    0594: bcc5ce95;
    0595: bd8ad70e;
    0596: bda91a9a;
    0597: bde0c919;
    0598: 3d1aa72a;
    0599: 3cbdb954;
    059a: bceceac5;
    059b: bcb41783;
    059c: 3de1ed9d;
    059d: 3d8748de;
    059e: 3d950032;
    059f: 3d5f5922;
    05a0: bd211d33;
    05a1: 3cc26c44;
    05a2: bcf9462e;
    05a3: bdee0383;
    05a4: 3ca85a1b;
    05a5: 3cf09efe;
    05a6: 3e07e9bf;
    05a7: 3e1fa3a9;
    05a8: bda4e5be;
    05a9: bddfa314;
    05aa: 3e306726;
    05ab: 3dc28348;
    05ac: 3c231c5e;
    05ad: 3d89fced;
    05ae: 3e6ff021;
    05af: 3ea606f0;
    05b0: 3b7df900;
    05b1: 3d4c0fe6;
    05b2: bdaa3948;
    05b3: be763a60;
    05b4: bb3728db;
    05b5: bd92bd5f;
    05b6: 3d10f9e7;
    05b7: 3cb322a7;
    05b8: 3ddc1c00;
    05b9: bcd1e19d;
    05ba: bcc2523e;
    05bb: 3d980798;
    05bc: 3e539fc5;
    05bd: 3dc98320;
    05be: bd1dae5e;
    05bf: be889fd3;
    05c0: bd90c9f8;
    05c1: bd97b4b2;
    05c2: 3cf31a31;
    05c3: bc358fcd;
    05c4: bda8ca4d;
    05c5: bc0ca6f2;
    05c6: 3e214bec;
    05c7: 3cdf96e1;
    05c8: 3d3d538b;
    05c9: bdf731ce;
    05ca: bdd4eddf;
    05cb: bd9f21f5;
    05cc: 3e0754c6;
    05cd: bde069a6;
    05ce: be36ae8d;
    05cf: be115361;
    05d0: bd052817;
    05d1: bd88e509;
    05d2: 3c1b4955;
    05d3: be04ad2e;
    05d4: bd99abbe;
    05d5: 3a06f15e;
    05d6: 3e1c8ed3;
    05d7: 3d5f7591;
    05d8: 3d3dfc23;
    05d9: 3a855321;
    05da: 3d29011b;
    05db: bd0fbbab;
    05dc: 3e5155c6;
    05dd: 3e118a63;
    05de: 3c0aa41b;
    05df: 3d86393b;
    05e0: bde79a70;
    05e1: 3de14506;
    05e2: 3e099a82;
    05e3: 3ced7940;
    05e4: bdadc340;
    05e5: bd1e725b;
    05e6: 3d2367e6;
    05e7: 3d8f0e32;
    05e8: 3e670912;
    05e9: bbd55eb3;
    05ea: bd9680d5;
    05eb: bccc5b36;
    05ec: bdb0d68a;
    05ed: bd9a92fc;
    05ee: be878ad6;
    05ef: be4f6af6;
    05f0: bd7ff13c;
    05f1: 3d6d32e3;
    05f2: 3e569c1b;
    05f3: 3cba6977;
    05f4: bb03de2d;
    05f5: 3afb6231;
    05f6: 3e2f7480;
    05f7: 3ccec97e;
    05f8: bd96b03f;
    05f9: bda5d0ba;
    05fa: bd1d8d70;
    05fb: be27850c;
    05fc: bd373078;
    05fd: bdc0d634;
    05fe: bd8f95e4;
    05ff: bd76151e;
    0600: bd855e44;
    0601: 3b88121a;
    0602: 3ca75df1;
    0603: 3d7cdfe2;
    0604: beb42d8d;
    0605: bd68f5d9;
    0606: 3da0e8f6;
    0607: bd09ca8e;
    0608: be363f2a;
    0609: 3e912ba4;
    060a: 3e5060f9;
    060b: 3da29927;
    060c: bcead90c;
    060d: 3c574d0a;
    060e: 3d3fd7be;
    060f: be25f2d0;
    0610: 3d82bbbf;
    0611: 3d01ac4f;
    0612: bbe5ab39;
    0613: 3d0f78de;
    0614: be7ea81e;
    0615: bdb7751b;
    0616: 3dd6d19b;
    0617: bdd461ee;
    0618: bd569901;
    0619: 3d353d41;
    061a: 3d09c2bc;
    061b: bd92e533;
    061c: 3cc593dd;
    061d: 3c89fcff;
    061e: bdb38e35;
    061f: bd07cc9b;
    0620: 3d2258c2;
    0621: be3814bf;
    0622: be2c6950;
    0623: 3dc77f2d;
    0624: bad18028;
    0625: be127cb2;
    0626: 3d3d3825;
    0627: 3e1a288a;
    0628: bdc09421;
    0629: 3c4f9dfb;
    062a: bd4f8dae;
    062b: bd4e01bc;
    062c: bdd42e59;
    062d: be4e7dda;
    062e: be18885e;
    062f: 3ccbe7aa;
    0630: 3d90e812;
    0631: bd001b93;
    0632: 3dc49304;
    0633: bcd94a87;
    0634: b9f15adc;
    0635: 3c53a677;
    0636: 3cd9aa07;
    0637: 3e1a5a63;
    0638: 3dcede50;
    0639: 3e052b63;
    063a: 3d56f440;
    063b: 3d6b5b43;
    063c: 3e102a6c;
    063d: 3e155b85;
    063e: bd8ab1d0;
    063f: be858504;
    0640: 3dd137fe;
    0641: 3d0a40b2;
    0642: bd93b824;
    0643: be2aca5e;
    0644: bd04f53f;
    0645: 3db6d049;
    0646: bd47c623;
    0647: bd6d6acd;
    0648: 3db83312;
    0649: 3ded3063;
    064a: bd2f7006;
    064b: bd68e8ce;
    064c: 3d8d1dfb;
    064d: bc981ee3;
    064e: bd419e40;
    064f: bcd9e4c0;
    0650: be8ab374;
    0651: be9beb2e;
    0652: 3e126fd2;
    0653: 3d3f94d9;
    0654: be6deeed;
    0655: bdd5efb1;
    0656: 3d48615d;
    0657: 3c1b1f4b;
    0658: bdfd22a7;
    0659: be3c189a;
    065a: be15ec35;
    065b: bc45e4e9;
    065c: bc441520;
    065d: bdf0f439;
    065e: bd9e7300;
    065f: 3d6bf672;
    0660: bd6c9a4e;
    0661: bce0dc43;
    0662: bd4547a4;
    0663: bd51a661;
    0664: be07faa6;
    0665: bc15a64a;
    0666: bd777163;
    0667: 3d568f35;
    0668: bd3c0cb0;
    0669: bd3888d0;
    066a: 3cf6fd5b;
    066b: 3c1131cf;
    066c: bd1764e0;
    066d: 3d4ba377;
    066e: bd48278d;
    066f: bd26deea;
    0670: bcf04df7;
    0671: 3d0c8c05;
    0672: 3cb86aa5;
    0673: 3d01a3b7;
    0674: bce3749d;
    0675: 3d037ce2;
    0676: 3d187d61;
    0677: bd6814d3;
    0678: bcdbcd99;
    0679: bda31454;
    067a: bd898b24;
    067b: bd08393e;
    067c: 3d248936;
    067d: 3c71076c;
    067e: 3d94ccb0;
    067f: 3c8f823e;
    0680: be9a1403;
    0681: bd831b98;
    0682: 3d6ef344;
    0683: 3d0d31cd;
    0684: bd85c217;
    0685: 3b71900d;
    0686: bc384b97;
    0687: bd70351c;
    0688: bc91fea3;
    0689: 3d45c7fa;
    068a: bd4fa2f1;
    068b: bdb2282a;
    068c: bd4c1ecb;
    068d: 3cbab986;
    068e: be09f1dc;
    068f: 3ca3f8ae;
    0690: be0cf6d8;
    0691: bdc60248;
    0692: 3c92bec6;
    0693: bdb58757;
    0694: bde5ce23;
    0695: 3c9b88a1;
    0696: 3d7958a1;
    0697: 3b61838d;
    0698: 3cb20a33;
    0699: 3d64ceed;
    069a: 3a80f668;
    069b: 3c0efaae;
    069c: 3d3d6d09;
    069d: 3d9f1155;
    069e: 3dc9e363;
    069f: 3ddf6d9d;
    06a0: be8634d7;
    06a1: be8eaeb2;
    06a2: 3cb8aef3;
    06a3: 3d7025a9;
    06a4: 3e0f6ac6;
    06a5: bc2f5eb0;
    06a6: 3e19470a;
    06a7: 3d02f33b;
    06a8: bcca0847;
    06a9: bde0b5bf;
    06aa: bde56850;
    06ab: 3d6cec2d;
    06ac: beb7b4a0;
    06ad: be620819;
    06ae: be0c682c;
    06af: 3e1c3cd2;
    06b0: 3ded97c6;
    06b1: 3c90f403;
    06b2: bd838d42;
    06b3: bcefef5e;
    06b4: bd699d7b;
    06b5: bdc066be;
    06b6: 3e04a3f3;
    06b7: 3c72bd98;
    06b8: bdbf2f31;
    06b9: bd6765b6;
    06ba: 3d61e877;
    06bb: bdc8d899;
    06bc: 3d6f2fe3;
    06bd: 3d885e29;
    06be: bc20d06e;
    06bf: 3abb23d4;
    06c0: 3db1b2d0;
    06c1: 3d4840a7;
    06c2: bdf59d31;
    06c3: bdbd0077;
    06c4: bd8d20af;
    06c5: bd1af05d;
    06c6: bdfd0d12;
    06c7: bc892a56;
    06c8: be085da0;
    06c9: 3d919cb3;
    06ca: bdff0c4a;
    06cb: bde98e3b;
    06cc: bbe5667d;
    06cd: bc81a8e1;
    06ce: bb68dae2;
    06cf: 3d8f8c25;
    06d0: be827874;
    06d1: be6ea397;
    06d2: bc00cf8b;
    06d3: bd05ffd4;
    06d4: be524f13;
    06d5: be3dee35;
    06d6: be0a0146;
    06d7: be2984c2;
    06d8: bdfaacb3;
    06d9: be73c267;
    06da: bd3640d5;
    06db: bdf937fb;
    06dc: bba48ac0;
    06dd: be405ef2;
    06de: bd9699da;
    06df: bd3e5ec2;
    06e0: 3e14caed;
    06e1: 3e2f1be3;
    06e2: 3d911d8d;
    06e3: be49e768;
    06e4: b9b88b78;
    06e5: 3cccc156;
    06e6: bd77fb63;
    06e7: be930b1b;
    06e8: bda0ccdd;
    06e9: 3d706fdd;
    06ea: bd23be9d;
    06eb: bd880cb3;
    06ec: bd33b354;
    06ed: 3ca24145;
    06ee: 3d60a846;
    06ef: bde058ed;
    06f0: 3d5a44cc;
    06f1: 3d2403a6;
    06f2: bb2768bf;
    06f3: bd824c16;
    06f4: bdb67f70;
    06f5: bd4b0410;
    06f6: bca9287f;
    06f7: bd101368;
    06f8: be0d6f63;
    06f9: 3d92d765;
    06fa: 3d39d399;
    06fb: 3d1fbd4f;
    06fc: bdf3ee30;
    06fd: bd27e510;
    06fe: bd1745b5;
    06ff: bd538c56;
    0700: bccb5d2c;
    0701: be004c08;
    0702: be453fb3;
    0703: be374c4e;
    0704: bc04590a;
    0705: 3d9ad6d1;
    0706: bdbfb28f;
    0707: 3ca17dc2;
    0708: 3de79889;
    0709: 3d983abb;
    070a: 3d27f0f0;
    070b: bdfed213;
    070c: 3d2476e5;
    070d: bc3cc9ef;
    070e: be25ab1f;
    070f: beb10634;
    0710: 3e51f887;
    0711: 3d9d7a27;
    0712: 3c136e33;
    0713: bd46fabf;
    0714: 3db323ca;
    0715: 3d5d53e0;
    0716: 3b696449;
    0717: 3cc47693;
    0718: 3d30ab6a;
    0719: 3dae1137;
    071a: 3d223201;
    071b: be2c0245;
    071c: 3e10a6ba;
    071d: 3e0c30bb;
    071e: 3d451f23;
    071f: be454ef0;
    0720: be18a074;
    0721: bb51244b;
    0722: bc6d9901;
    0723: bd773f8f;
    0724: bda7013c;
    0725: 3dba5dff;
    0726: 3da6e501;
    0727: bd56c8bb;
    0728: be080262;
    0729: 3e2736ca;
    072a: bc684a77;
    072b: be10a3d9;
    072c: bdf2f786;
    072d: 3d1d5bff;
    072e: bd319fee;
    072f: 3e336d8a;
    0730: 3e926ffb;
    0731: 3de2faa1;
    0732: 3ce2ef50;
    0733: bcce4e91;
    0734: 3e55a30a;
    0735: 3c9bb34d;
    0736: 3b93d008;
    0737: 3dd86b18;
    0738: 3db59a48;
    0739: bd0e372d;
    073a: bc95a94d;
    073b: bc33a3dc;
    073c: 3e2203ba;
    073d: 3d5dc19a;
    073e: 3da4e61c;
    073f: bb397cfc;
    0740: 3cee1942;
    0741: 3c52d5e6;
    0742: bbede3de;
    0743: bd4110af;
    0744: bdcc0971;
    0745: bd723629;
    0746: 3c7ed669;
    0747: bd513bb4;
    0748: be308fb4;
    0749: 3e17c244;
    074a: 3daacb69;
    074b: 3dccc861;
    074c: bd540ea9;
    074d: 3d652f50;
    074e: 3d80e6d3;
    074f: bd113425;
    0750: bcb3d077;
    0751: 3d10f017;
    0752: bb9b4c82;
    0753: 3d7f0875;
    0754: 3e0164bc;
    0755: 3e8193a4;
    0756: 3d9b2ad4;
    0757: bb6ba669;
    0758: bcac4c59;
    0759: bd5a4215;
    075a: be1ff903;
    075b: bda2e7c1;
    075c: be0b3f13;
    075d: bc695a34;
    075e: 3d039952;
    075f: 3e0d4cdc;
    0760: be191e8c;
    0761: beb0a2f0;
    0762: bd0bd26e;
    0763: 3cdb5f09;
    0764: be555890;
    0765: bdb62583;
    0766: 3dfabba7;
    0767: bd15d1e0;
    0768: bed67ae3;
    0769: be395656;
    076a: be4e5e94;
    076b: bdf3e855;
    076c: bd8e30e7;
    076d: bcd3ce13;
    076e: be12d1b0;
    076f: 3dc82a9e;
    0770: 3e1690bf;
    0771: 3da550be;
    0772: 3a5bfcf9;
    0773: bdf72526;
    0774: bb3e6e9f;
    0775: bccf3310;
    0776: bdb60c91;
    0777: 3ded4c60;
    0778: 3e26d6b4;
    0779: 3cc11d5b;
    077a: bcd06a8b;
    077b: bd584ec5;
    077c: 3e3a9f8c;
    077d: 3e026f19;
    077e: 3dae4077;
    077f: bdf2f0b1;
    0780: bd8d7d2c;
    0781: bdfcf913;
    0782: 3d8bb9fb;
    0783: 3dfe2c3c;
    0784: bde527fb;
    0785: bde7ff08;
    0786: bd988bdc;
    0787: bd67f08f;
    0788: 3d81e630;
    0789: bc050d28;
    078a: be062128;
    078b: bde57c66;
    078c: 3d991382;
    078d: 3d963b43;
    078e: bd36ec8a;
    078f: 3d756646;
    0790: bd977444;
    0791: bd9548e8;
    0792: bd6f280c;
    0793: bdb571e4;
    0794: bde40d98;
    0795: 3d9fde8e;
    0796: 3e14d55c;
    0797: 3e552484;
    0798: be0286cd;
    0799: 3de62e11;
    079a: 3d354464;
    079b: be22a31c;
    079c: be1ee0fc;
    079d: bd7e1640;
    079e: 3d85a91c;
    079f: 3dabf79c;
    07a0: be5a19ff;
    07a1: bda3c9d6;
    07a2: bd8812ba;
    07a3: bc8bcd8a;
    07a4: be12a461;
    07a5: bbfcc0b5;
    07a6: 3c418935;
    07a7: 3dd40954;
    07a8: 3e1c7958;
    07a9: 3d85d0b2;
    07aa: 3d880e44;
    07ab: 3df37e6c;
    07ac: 3dc5b8cb;
    07ad: 3d7d9acf;
    07ae: 3cf02112;
    07af: bdda3078;
    07b0: bdc25164;
    07b1: be33c049;
    07b2: bdd4b44d;
    07b3: 3dc60598;
    07b4: bdac28b0;
    07b5: 3e3be012;
    07b6: 3d8b1dfb;
    07b7: 3d8d9a26;
    07b8: be009260;
    07b9: 3e2ca45c;
    07ba: bd8dafd7;
    07bb: bd6a86a1;
    07bc: bd69cdbf;
    07bd: bd9bb173;
    07be: bd7cb423;
    07bf: 3aa6ce1c;
    07c0: beb9f9a8;
    07c1: be210ba4;
    07c2: bddc8b1a;
    07c3: bd38cbe0;
    07c4: beb16ee9;
    07c5: be37347a;
    07c6: be8f0213;
    07c7: bdda586a;
    07c8: be297afa;
    07c9: 3d5d47c8;
    07ca: bdf7d586;
    07cb: 3c74300b;
    07cc: bd98cc53;
    07cd: be19d056;
    07ce: bdeea8e8;
    07cf: bda2483b;
    07d0: be29e034;
    07d1: be0726cc;
    07d2: bdd663be;
    07d3: bd6fb093;
    07d4: be93a399;
    07d5: be822e02;
    07d6: bd8e6493;
    07d7: 3bafe7a3;
    07d8: be70e042;
    07d9: bb464d1c;
    07da: bdbcd6ea;
    07db: beaaa9b8;
    07dc: be58c465;
    07dd: bd7b3546;
    07de: bd6f5aeb;
    07df: 3d72262f;
    07e0: beb06b7c;
    07e1: be04b692;
    07e2: 3dbac762;
    07e3: 3e0e1ad6;
    07e4: be8c0782;
    07e5: 3c49cf00;
    07e6: be67e8dd;
    07e7: be3fca53;
    07e8: bea5a215;
    07e9: bc982ed7;
    07ea: bd0cdcc5;
    07eb: bc82cfd3;
    07ec: be3d743a;
    07ed: bd8e4a0b;
    07ee: bdc88ad3;
    07ef: 3d48ec23;
    07f0: bccebb48;
    07f1: 3d8cbb30;
    07f2: 3d50d983;
    07f3: 3d946cae;
    07f4: 3cf531a4;
    07f5: bc2df006;
    07f6: bd1658c6;
    07f7: bcd06beb;
    07f8: 3e1a7e62;
    07f9: be251b4c;
    07fa: bddd3b7f;
    07fb: 3d58fe1d;
    07fc: 3d8cbcb3;
    07fd: 3cf0ef02;
    07fe: 3e1dfcdb;
    07ff: 3d6e5a15;
    0800: 3d899767;
    0801: bd2f4dce;
    0802: bcaf1adf;
    0803: be983764;
    0804: 3cac3ac2;
    0805: 3c55000c;
    0806: be261ced;
    0807: bcffb96d;
    0808: 3d5038a2;
    0809: 3cf92129;
    080a: 3d11689c;
    080b: bd18df8f;
    080c: bdd04498;
    080d: bdf32f14;
    080e: 3d984a07;
    080f: 3e012588;
    0810: bddf8d69;
    0811: be06e4d6;
    0812: bc91de49;
    0813: be3e96b8;
    0814: 3d24ed9d;
    0815: 3d1acdde;
    0816: bd108119;
    0817: 3e02dc1d;
    0818: 3e2a2f8b;
    0819: 3de363ad;
    081a: bd9b6f75;
    081b: 3e49a6ba;
    081c: be20ca65;
    081d: be81cd05;
    081e: bdc1f73a;
    081f: 3c2dd9b6;
    0820: bc7b4bfa;
    0821: bd6dcb7c;
    0822: be0e398d;
    0823: bdbd5d45;
    0824: be3d0b18;
    0825: bd025cb6;
    0826: bdd29b7d;
    0827: be038e4d;
    0828: 3dde2c91;
    0829: bdb54592;
    082a: be108575;
    082b: bdd8b21b;
    082c: 3dac711d;
    082d: 3d1d3b02;
    082e: 3e024bf5;
    082f: 3b7f1463;
    0830: 3cd41822;
    0831: bd2fbb77;
    0832: bdc7524b;
    0833: be091333;
    0834: bca27261;
    0835: bd1df050;
    0836: 3cda30ed;
    0837: 3e11ddfc;
    0838: 3ce49e8d;
    0839: 3d9abf47;
    083a: 3e261a19;
    083b: 3e748db5;
    083c: bc56d836;
    083d: be1f9cb8;
    083e: 3e038bc8;
    083f: bbb09784;
    0840: bdeacdf0;
    0841: bdd54c2c;
    0842: be2cbe7d;
    0843: bdf9b4c6;
    0844: 3adb3b03;
    0845: 3cfb549f;
    0846: 3d3003e6;
    0847: 3cfd7c34;
    0848: 3dacb081;
    0849: 3dc0e5ea;
    084a: bd72463d;
    084b: be08d457;
    084c: bd959830;
    084d: bd2291b8;
    084e: bd9ba717;
    084f: bdb2a296;
    0850: 3debc4da;
    0851: 3eb10ffb;
    0852: 3e7cb238;
    0853: 3e0a6fda;
    0854: 3e14447a;
    0855: 3e779bf8;
    0856: bbe52f6f;
    0857: 3d1c4c23;
    0858: bd059887;
    0859: 3bdfc7ba;
    085a: be6bab24;
    085b: bddfd71d;
    085c: bc3c226b;
    085d: bd900f78;
    085e: bd9baddf;
    085f: bda41c7a;
    0860: bdb3d59d;
    0861: 3c81bcdd;
    0862: 3d4394bb;
    0863: bd59b4cc;
    0864: 3da8b8ca;
    0865: 3cb057f9;
    0866: bdbea959;
    0867: 3e31e90a;
    0868: bb195989;
    0869: 3d9385d4;
    086a: be87b4c7;
    086b: 3d02d080;
    086c: 3bc5a4a0;
    086d: bb8e8582;
    086e: be31df92;
    086f: 3cec261c;
    0870: bdd72c0b;
    0871: be23b7f8;
    0872: be24b977;
    0873: be70b2c0;
    0874: 3d17c7d0;
    0875: 3d062cea;
    0876: 3e46c575;
    0877: 3d922a57;
    0878: 3dd7749b;
    0879: 3d0537fa;
    087a: 3e0b58a8;
    087b: 3e79e9a5;
    087c: bd82dde2;
    087d: bdd829ce;
    087e: be2b3387;
    087f: bdd4b899;
    0880: 3dc376a7;
    0881: 3e58f464;
    0882: 3e243079;
    0883: 3dfbfee7;
    0884: bca00b7f;
    0885: bcec66e9;
    0886: bc63ac11;
    0887: 3ca7fdd8;
    0888: bd82cbe7;
    0889: bcf60212;
    088a: bd9fe42e;
    088b: 3d81f562;
    088c: bcf322ce;
    088d: 3ba11ad8;
    088e: 3dc18138;
    088f: 3d66bf7f;
    0890: bd1f57dd;
    0891: be02a4f4;
    0892: 3d152f89;
    0893: bda28adc;
    0894: 3e2fe3cb;
    0895: bc92eb09;
    0896: 3c72e1b0;
    0897: 3d8a659c;
    0898: bda45236;
    0899: bd2a152e;
    089a: bcf06dfd;
    089b: 3c98ecbf;
    089c: 3d657b97;
    089d: be539162;
    089e: be1c65dd;
    089f: be42686b;
    08a0: 3d8d01a6;
    08a1: 3e4ef489;
    08a2: 3e80e42c;
    08a3: 3ea7b908;
    08a4: 3d50e233;
    08a5: 3bbcc6c8;
    08a6: 3d9159b2;
    08a7: bd4ca0c9;
    08a8: 3dea81e6;
    08a9: 3e785cf1;
    08aa: bdd05d15;
    08ab: bdedd626;
    08ac: 3d827588;
    08ad: 3da240ed;
    08ae: bd12e956;
    08af: be5ecbff;
    08b0: bda90ed9;
    08b1: be6e7374;
    08b2: be69345b;
    08b3: bde0893f;
    08b4: bc7e8d98;
    08b5: 3d5ad195;
    08b6: bd253175;
    08b7: bd1c96dc;
    08b8: 3d93c79f;
    08b9: 3de0c53a;
    08ba: 3d897ad2;
    08bb: 3e430662;
    08bc: bd12f5ba;
    08bd: bde21e9e;
    08be: be4d4911;
    08bf: 3bbe2a1d;
    08c0: bcb8e839;
    08c1: bda303be;
    08c2: be15ec10;
    08c3: 3e8ae8e8;
    08c4: b99b19fc;
    08c5: 3db3a7dd;
    08c6: be3037fa;
    08c7: 3d0e37c1;
    08c8: 3d19b75d;
    08c9: bdb82b55;
    08ca: bdb7353e;
    08cb: 3c0628a0;
    08cc: bdce85eb;
    08cd: 3dae8675;
    08ce: 3dad91cb;
    08cf: bc1a65d1;
    08d0: 3dfafb26;
    08d1: 3eb55f71;
    08d2: 3e7abab8;
    08d3: 3de90d54;
    08d4: 3de0cbc4;
    08d5: 3d8cea2f;
    08d6: bd27dc5d;
    08d7: 3d7917c2;
    08d8: 3d1045ea;
    08d9: 3c0db322;
    08da: be1a5ff8;
    08db: 3cb2b6a2;
    08dc: bd352558;
    08dd: bd88283e;
    08de: bd260077;
    08df: bceffff6;
    08e0: 3d9db266;
    08e1: be3dc803;
    08e2: beb78776;
    08e3: bd9384ad;
    08e4: bd6c6be3;
    08e5: bdf04d96;
    08e6: 3daca1d9;
    08e7: bdba451a;
    08e8: bc829b5c;
    08e9: 3bb5eba8;
    08ea: bb0a6134;
    08eb: bd992629;
    08ec: bc2ebd7a;
    08ed: bce6b421;
    08ee: bdaad985;
    08ef: bd9abc21;
    08f0: 3d1240af;
    08f1: bde5ebc0;
    08f2: be256c97;
    08f3: bd94499f;
    08f4: 3c872392;
    08f5: be36b0b7;
    08f6: bdcd38f1;
    08f7: 3e2d5ce8;
    08f8: 3cb253a4;
    08f9: 3cbcb399;
    08fa: bda20f49;
    08fb: 3d12df7c;
    08fc: 3e287654;
    08fd: be2faf61;
    08fe: 3bb202e5;
    08ff: bd579984;
    0900: be044a52;
    0901: bdcdd28b;
    0902: be16a656;
    0903: be60f7a0;
    0904: bd33ead2;
    0905: bda3908b;
    0906: 3cfbdf33;
    0907: be600db2;
    0908: bd272d5e;
    0909: 3c4e277e;
    090a: 3dceab31;
    090b: 3dba124b;
    090c: bdf13090;
    090d: 3d2c613d;
    090e: bd9dd058;
    090f: 3d330702;
    0910: 3d0190e5;
    0911: be213324;
    0912: bda00438;
    0913: bdf6a0a8;
    0914: 3ccea69f;
    0915: 3dedacac;
    0916: 3dbcd781;
    0917: be823851;
    0918: 3d903c3f;
    0919: 3d796406;
    091a: 3b9ffd3f;
    091b: 3c1081eb;
    091c: bdff6491;
    091d: bd67918f;
    091e: be02bfec;
    091f: bd8c7820;
    0920: be3f5288;
    0921: bde2d176;
    0922: bd7ab2cb;
    0923: 3e539efa;
    0924: 3d8d31a3;
    0925: 3dc65327;
    0926: be8af8aa;
    0927: 3c415ed9;
    0928: 3c0d97b5;
    0929: 3c87cf61;
    092a: bdca8228;
    092b: bd71a686;
    092c: bd2652bc;
    092d: 3ddcef24;
    092e: 3d4f9421;
    092f: bd1ead8a;
    0930: bd81acb9;
    0931: be0cff97;
    0932: be30d905;
    0933: be12d638;
    0934: bd986ddf;
    0935: bcaad574;
    0936: 3e03df72;
    0937: be10f321;
    0938: 3d884f0f;
    0939: 3d89a107;
    093a: 3d4110d1;
    093b: 3d78ad93;
    093c: bda5a4b8;
    093d: 3cbff7c9;
    093e: bdc776dc;
    093f: bd9e0ce1;
    0940: 3dd19b75;
    0941: 3d186128;
    0942: bccbf6b0;
    0943: be5ab138;
    0944: 3d291342;
    0945: 3c7c3b38;
    0946: bda9e1c3;
    0947: bd049f18;
    0948: 3d3913fd;
    0949: bd299930;
    094a: bd987613;
    094b: bdd52c34;
    094c: 3bc1e72a;
    094d: bd8b01aa;
    094e: 3d52c6ed;
    094f: 3d1c77e0;
    0950: ba8bcf20;
    0951: bda9ce4b;
    0952: 3c4bb368;
    0953: 3e84d340;
    0954: 3d28698f;
    0955: bda76f4b;
    0956: bc76e6d6;
    0957: bcb50932;
    0958: 3d0f75d7;
    0959: 3d8e49b3;
    095a: bd1045dc;
    095b: 3bf377ff;
    095c: 3dffc98a;
    095d: bbf0a2cd;
    095e: bd72a429;
    095f: be1d1f26;
    0960: bd3ec272;
    0961: 3d699a2a;
    0962: 3df2edae;
    0963: 3e151c08;
    0964: bcd1d4c8;
    0965: 3d8cc31b;
    0966: 3c05333b;
    0967: 3dc03f14;
    0968: 3cd4f9fd;
    0969: 3d8bc63a;
    096a: bdf2a31c;
    096b: 3b382899;
    096c: bd832ed7;
    096d: bdafb7af;
    096e: bce060dd;
    096f: be230514;
    0970: 3c4c2aeb;
    0971: be296d21;
    0972: bdf651b6;
    0973: be08f4cc;
    0974: 3d5cdf7e;
    0975: bd6f14c7;
    0976: 3d877d78;
    0977: be36ed9c;
    0978: 3df50419;
    0979: bc5e628f;
    097a: 3bc296f6;
    097b: be3c60d3;
    097c: be108009;
    097d: bd997381;
    097e: bdeda3d8;
    097f: 3cad0e37;
    0980: 3d9568c9;
    0981: 3e709395;
    0982: 3d9c560a;
    0983: 3da1f90a;
    0984: 3dc45f69;
    0985: 3e7cb9c0;
    0986: 3d06d20f;
    0987: bdfed56a;
    0988: bd001837;
    0989: 3d06d449;
    098a: 3c129976;
    098b: bc3821d9;
    098c: be16daa9;
    098d: bcac6a61;
    098e: bc85b9c9;
    098f: bd92279d;
    0990: be35290c;
    0991: be3ce68c;
    0992: bd61cd88;
    0993: 3d8c298a;
    0994: 3cff3a63;
    0995: 3da4a2d0;
    0996: bb1b5956;
    0997: 3d845cd1;
    0998: 3e1c4b86;
    0999: bd6e5245;
    099a: bd57f42c;
    099b: bd673936;
    099c: bcbad468;
    099d: bbc94500;
    099e: bbd85817;
    099f: bdcb494c;
    09a0: 3d583a58;
    09a1: 3d710202;
    09a2: 3cb1a112;
    09a3: be407b25;
    09a4: 3dc8852b;
    09a5: 3d8af27b;
    09a6: 3d8f27bf;
    09a7: 3cf4ba84;
    09a8: bcd1f46b;
    09a9: 3d41631f;
    09aa: 3d83eae3;
    09ab: 3bdb022a;
    09ac: be853f6d;
    09ad: be5511cf;
    09ae: bdcbab37;
    09af: bb9ea23e;
    09b0: bddaab7a;
    09b1: bce46cb2;
    09b2: 3e937526;
    09b3: 3e93fcfd;
    09b4: bccc08b4;
    09b5: bce04b47;
    09b6: 3d5558d5;
    09b7: 3db0efa9;
    09b8: 3cad2474;
    09b9: 3dbc01d9;
    09ba: 3dc919da;
    09bb: bda780e3;
    09bc: bba504b8;
    09bd: 3d10019a;
    09be: bc650548;
    09bf: bd5d089a;
    09c0: 3dc8671c;
    09c1: 3e906a62;
    09c2: 3e5ac61b;
    09c3: 3de2b0cd;
    09c4: 3d3ec819;
    09c5: bcf156cf;
    09c6: 3da6127d;
    09c7: 3d33e13f;
    09c8: bd8b3c88;
    09c9: bcd22fa3;
    09ca: 3ce16977;
    09cb: bd77d5a0;
    09cc: 3c7cbf7c;
    09cd: bc384965;
    09ce: 3dcc0637;
    09cf: bd7e275f;
    09d0: bd7203c3;
    09d1: bd19192d;
    09d2: 3e2e3c49;
    09d3: 3d81ef5d;
    09d4: 3d06cb60;
    09d5: 3e35dc8a;
    09d6: 3e42448d;
    09d7: 3e434cac;
    09d8: bc810259;
    09d9: 3cc43eef;
    09da: bd634168;
    09db: 3d0f2e94;
    09dc: 3d4945c1;
    09dd: bd1a6428;
    09de: be012d09;
    09df: bd50f5cc;
    09e0: 3e1d4bc4;
    09e1: 3e14786b;
    09e2: 3dc4c2eb;
    09e3: 3e140b15;
    09e4: 3d3c148f;
    09e5: bdaed911;
    09e6: 3c9ee8b5;
    09e7: be075608;
    09e8: bd2afaad;
    09e9: 3d56cc1f;
    09ea: bdca374a;
    09eb: bd8bbfc0;
    09ec: 3d80c1d4;
    09ed: 3dc308d3;
    09ee: 3d8881e1;
    09ef: 3d413796;
    09f0: 3e9cdbf0;
    09f1: 3e5a7d98;
    09f2: 3daa0099;
    09f3: bd7b4d56;
    09f4: 3dcdfd65;
    09f5: 3c2d925d;
    09f6: bdac5fb5;
    09f7: bd7b3cf0;
    09f8: bd439e96;
    09f9: ba7a79b5;
    09fa: bd65bd69;
    09fb: bc68170a;
    09fc: bc709491;
    09fd: 3c4f56a2;
    09fe: bdd26db5;
    09ff: be0bf1f0;
    0a00: 3cffbe57;
    0a01: 3d389ce0;
    0a02: bddee361;
    0a03: bea0f39e;
    0a04: 3d26bd3b;
    0a05: bac79e04;
    0a06: 3b942fbc;
    0a07: 3c7a5db0;
    0a08: 3cdd250d;
    0a09: 3c425b8d;
    0a0a: 3d55f7f9;
    0a0b: 3d6ff673;
    0a0c: 3d07065a;
    0a0d: bca75cec;
    0a0e: be016bf8;
    0a0f: bdd96be3;
    0a10: bdc78705;
    0a11: 3c8582ac;
    0a12: 3d00b2c5;
    0a13: 3caccec9;
    0a14: 3d77307a;
    0a15: bc01dc06;
    0a16: 3d86d2cf;
    0a17: bc9975c6;
    0a18: bd453d0c;
    0a19: 3ce8e71b;
    0a1a: 3d640f8b;
    0a1b: 3d12fbee;
    0a1c: bd27d5ef;
    0a1d: bd26ce88;
    0a1e: bd5b376f;
    0a1f: 3d1761d9;
    0a20: be079bda;
    0a21: 3dc48b3c;
    0a22: 3e30fe3d;
    0a23: 3e2a661b;
    0a24: 3a5e9122;
    0a25: 3d396f6b;
    0a26: 3da07c7d;
    0a27: 3dba1d8d;
    0a28: 3d83c615;
    0a29: 3caa687b;
    0a2a: bc4bd139;
    0a2b: bdb060e0;
    0a2c: bdf3db36;
    0a2d: bd8e9787;
    0a2e: bda42ce9;
    0a2f: bdc6df4d;
    0a30: bdaea9fa;
    0a31: bd293fec;
    0a32: 3e002173;
    0a33: 3e413adf;
    0a34: bc642f75;
    0a35: 3c740e7f;
    0a36: 3d5120ba;
    0a37: 3e6fbaec;
    0a38: 3e3d3702;
    0a39: bc77233c;
    0a3a: 3ca51c96;
    0a3b: 3d497706;
    0a3c: 3d8b57c9;
    0a3d: 3d9b9d67;
    0a3e: 3c582b1c;
    0a3f: be303d92;
    0a40: bce0b633;
    0a41: bcf113ff;
    0a42: bd0b2eed;
    0a43: 3e77baeb;
    0a44: 3ccce92d;
    0a45: bd236a7c;
    0a46: 3d821936;
    0a47: 3ddf6ab0;
    0a48: 3d1ec9da;
    0a49: bc5aaad7;
    0a4a: be0c7f0c;
    0a4b: be08a121;
    0a4c: 3e15046e;
    0a4d: 3c78c93f;
    0a4e: 3b9ab30b;
    0a4f: 3d17c8a0;
    0a50: 3df5e4c8;
    0a51: 3dedb400;
    0a52: be6f5de4;
    0a53: 3d2a651c;
    0a54: 3da0a4dd;
    0a55: 3dee3d1e;
    0a56: bdfe671b;
    0a57: be501314;
    0a58: bda33064;
    0a59: be063f72;
    0a5a: 3d324ccf;
    0a5b: bceb1cfa;
    0a5c: bded26b9;
    0a5d: bb76ffba;
    0a5e: 3dfd64f8;
    0a5f: 3cec262b;
    0a60: bdcffcfd;
    0a61: 3d5327b8;
    0a62: 3e10389a;
    0a63: bd29b283;
    0a64: bda33bf6;
    0a65: bda2ea42;
    0a66: 3bd32b4d;
    0a67: be3c30fa;
    0a68: bd5b663c;
    0a69: 3d818b47;
    0a6a: bcee77e1;
    0a6b: be0fe0e2;
    0a6c: bd90fb26;
    0a6d: 3d3c7540;
    0a6e: 3d36560d;
    0a6f: bd1e4d4e;
    0a70: bd5f160b;
    0a71: 3d63ac96;
    0a72: bd40808b;
    0a73: 3e78a0c7;
    0a74: bc51c280;
    0a75: 3d245776;
    0a76: bd128527;
    0a77: 3d2377c4;
    0a78: 3d891e40;
    0a79: 3d04c4e1;
    0a7a: 3a86a241;
    0a7b: bc06ee9b;
    0a7c: 3d91addb;
    0a7d: 3dd56eb1;
    0a7e: 3d85d809;
    0a7f: bc41fab5;
    0a80: 3dabf420;
    0a81: 3dc328b3;
    0a82: bc9e7f70;
    0a83: be495a51;
    0a84: 3ce8debb;
    0a85: 3d9523ef;
    0a86: be22d455;
    0a87: bec3dc26;
    0a88: bd06a6d1;
    0a89: 3d460aec;
    0a8a: bd57c98b;
    0a8b: be10826f;
    0a8c: bc649156;
    0a8d: bdbfa09f;
    0a8e: bd58a46a;
    0a8f: 3d1578f0;
    0a90: be0f89b9;
    0a91: bcc429e3;
    0a92: bd165bae;
    0a93: bce46236;
    0a94: bdb48eba;
    0a95: 3d838ae2;
    0a96: bd6c89e7;
    0a97: 3ce84e49;
    0a98: 3dc01284;
    0a99: 3d83a47c;
    0a9a: bd676a4d;
    0a9b: 3dd972d7;
    0a9c: bde6d504;
    0a9d: 3da6aad0;
    0a9e: 3e00d851;
    0a9f: 3dee3cb0;
    0aa0: 3c96450c;
    0aa1: 3c92a780;
    0aa2: bda0976f;
    0aa3: bdc2440b;
    0aa4: bdef312d;
    0aa5: be2c1617;
    0aa6: bd2a6ba6;
    0aa7: becc3b59;
    0aa8: be24bbe2;
    0aa9: 3b96d219;
    0aaa: bd79532b;
    0aab: be010ad4;
    0aac: bdf2472a;
    0aad: bcc5393b;
    0aae: 3cb513cd;
    0aaf: 3d5f3604;
    0ab0: bdd755bf;
    0ab1: 3d0ea65e;
    0ab2: 3c032d3b;
    0ab3: 3e3e2671;
    0ab4: bd61faa3;
    0ab5: 3d9af7a8;
    0ab6: 3e07be6e;
    0ab7: 3d30427c;
    0ab8: 3d036686;
    0ab9: 3d8b4d08;
    0aba: bd9ae9e2;
    0abb: be2c7eef;
    0abc: 3e2c4b76;
    0abd: 3d83f63d;
    0abe: 3cefdc66;
    0abf: 3d6f8264;
    0ac0: bdb613ad;
    0ac1: bdc32d36;
    0ac2: 3d83c22b;
    0ac3: bc13ef29;
    0ac4: bdda34d6;
    0ac5: 3dcd49a5;
    0ac6: 3d1e08bf;
    0ac7: be0240b6;
    0ac8: bd1e51f3;
    0ac9: 3c964fd1;
    0aca: 3cd7d532;
    0acb: 3c9509cd;
    0acc: bdd27ba3;
    0acd: bd06523c;
    0ace: bd50e09a;
    0acf: 3d977a82;
    0ad0: 3d201d7a;
    0ad1: 3ddfb44e;
    0ad2: bd02c035;
    0ad3: be6a0642;
    0ad4: 3daf78df;
    0ad5: 3de27747;
    0ad6: 3d98df77;
    0ad7: be6aa427;
    0ad8: bd930263;
    0ad9: 3cf130ff;
    0ada: 3d1e5e9f;
    0adb: bbd8b296;
    0adc: 3c0993c4;
    0add: bd8e4358;
    0ade: 3c63bf1d;
    0adf: bd5e2f78;
    0ae0: ba869e43;
    0ae1: bd3c2eaf;
    0ae2: be66a003;
    0ae3: 3d599af3;
    0ae4: bd1b6bf1;
    0ae5: 3dc3192b;
    0ae6: 3c5e3d5b;
    0ae7: 3db31686;
    0ae8: 3d619751;
    0ae9: bddc8986;
    0aea: 3d930fd9;
    0aeb: 3d5eb2ac;
    0aec: 3dab2c32;
    0aed: bd012cfb;
    0aee: bda6cf86;
    0aef: be0c5dd0;
    0af0: bd3213f8;
    0af1: bd7e9f69;
    0af2: bd5527a2;
    0af3: 3d2fe80f;
    0af4: 3cd3cf65;
    0af5: 3cfee536;
    0af6: 3d817f79;
    0af7: 3d9a8b95;
    0af8: 3ce520c3;
    0af9: 3e44a6e0;
    0afa: 3d43e3ae;
    0afb: bd871ec0;
    0afc: bd8ab8e1;
    0afd: bd0fee63;
    0afe: bdfa6592;
    0aff: bdff02a8;
    0b00: bd091bea;
    0b01: 3c500f7e;
    0b02: 3e482a4e;
    0b03: 3e8faed6;
    0b04: 3d932453;
    0b05: bbb02ead;
    0b06: 3d4b7908;
    0b07: 3ececfdf;
    0b08: bc854432;
    0b09: bdbd2a89;
    0b0a: 3c5471d1;
    0b0b: bcdb5bd3;
    0b0c: 3d082d8f;
    0b0d: 3d9ce4e6;
    0b0e: bd8e4200;
    0b0f: be2a3137;
    0b10: bdad1b62;
    0b11: bd58725c;
    0b12: 3e463920;
    0b13: 3e84b880;
    0b14: 3c597264;
    0b15: 3b9ea2a5;
    0b16: 3aa99d25;
    0b17: 3e72d93a;
    0b18: 3e176312;
    0b19: bcd98291;
    0b1a: bc90f883;
    0b1b: 3cca51f8;
    0b1c: 3db5e076;
    0b1d: 3e250028;
    0b1e: 3d6b6729;
    0b1f: bc7cdf0a;
    0b20: 3b667efd;
    0b21: bdc4dac7;
    0b22: be15413f;
    0b23: 3cbe66e2;
    0b24: bc9222e0;
    0b25: 3d809474;
    0b26: bd31962b;
    0b27: be821078;
    0b28: bd601eaf;
    0b29: bd26c45e;
    0b2a: 3d020231;
    0b2b: 3ac4f80b;
    0b2c: bcff225d;
    0b2d: be3993ac;
    0b2e: bcf38d59;
    0b2f: 3df3093e;
    0b30: be54fd5c;
    0b31: 3c14632a;
    0b32: 3e3fd1de;
    0b33: 3e65390e;
    0b34: bd10b2ba;
    0b35: bc3153ac;
    0b36: 3d2ebe53;
    0b37: 3a6bcc41;
    0b38: 3dd26a28;
    0b39: bd03702c;
    0b3a: 3d4c17cb;
    0b3b: bde7b70b;
    0b3c: 3dc34538;
    0b3d: 3dda6b0a;
    0b3e: 3dda4fa7;
    0b3f: bdcfce20;
    0b40: 3d1cd0de;
    0b41: 3d99dc22;
    0b42: be2e5fcf;
    0b43: bea5b413;
    0b44: 3dd862f0;
    0b45: 3c42d0e2;
    0b46: bc8b77ac;
    0b47: bd631daa;
    0b48: 3c99d914;
    0b49: 3d02eaf1;
    0b4a: 3cf0b59c;
    0b4b: 3dd2e4c7;
    0b4c: bd249ce7;
    0b4d: bcf215da;
    0b4e: bd9dc6d8;
    0b4f: bd875484;
    0b50: bca82032;
    0b51: bb94a9cb;
    0b52: bd48e9ad;
    0b53: 3db4f923;
    0b54: bd73fc3d;
    0b55: be035f39;
    0b56: be2dca7f;
    0b57: be043c2c;
    0b58: bc1c8a99;
    0b59: bdbb78c0;
    0b5a: 3d4996e8;
    0b5b: bd80beea;
    0b5c: 3d2a35d2;
    0b5d: bc9e583b;
    0b5e: 3d856402;
    0b5f: 3d9dd13f;
    0b60: bdd48274;
    0b61: 3e01778a;
    0b62: 3c226502;
    0b63: 3d87a512;
    0b64: bd858a13;
    0b65: 3d1a91b6;
    0b66: bd0ca302;
    0b67: be97f806;
    0b68: be3dd85c;
    0b69: be248714;
    0b6a: bd758900;
    0b6b: bda7f4fe;
    0b6c: bddd1573;
    0b6d: 3d033b00;
    0b6e: 3e12fa55;
    0b6f: 3d1b32b9;
    0b70: bdae755e;
    0b71: 3da1d63a;
    0b72: 3d325a30;
    0b73: 3e5aafe5;
    0b74: 3b97217a;
    0b75: bd04c04e;
    0b76: 3d355f08;
    0b77: 3e34d554;
    0b78: 3e38de58;
    0b79: 3d2de181;
    0b7a: bd830a9d;
    0b7b: 3e0b27d2;
    0b7c: 3cdbc29d;
    0b7d: 3dd08740;
    0b7e: 3db69f61;
    0b7f: 3d53f8af;
    0b80: 3d4d5496;
    0b81: 3d9f5983;
    0b82: be1a0402;
    0b83: be8e83f1;
    0b84: 3dd15f7e;
    0b85: 3d17e4a3;
    0b86: 3dc47b5d;
    0b87: bde808d4;
    0b88: 3c5705d7;
    0b89: bca622d9;
    0b8a: 3c91926b;
    0b8b: 3da16851;
    0b8c: 3d51da80;
    0b8d: bddea8d0;
    0b8e: 3dc2079e;
    0b8f: 3dab85e1;
    0b90: be048d7c;
    0b91: 3d7935f1;
    0b92: 3d02a1ce;
    0b93: 3de89cc6;
    0b94: bd1f32fa;
    0b95: 3cbbf36f;
    0b96: bdbaf5c7;
    0b97: bdee3519;
    0b98: bd6494ca;
    0b99: 3cb93005;
    0b9a: be43dcd1;
    0b9b: bebf5862;
    0b9c: bd91a6df;
    0b9d: 3ca52bd1;
    0b9e: 3d716606;
    0b9f: bd14b99f;
    0ba0: bd8bab7f;
    0ba1: bd6f4528;
    0ba2: 3d6eba9c;
    0ba3: bd4eedf2;
    0ba4: bd2e19ca;
    0ba5: bd42ee7e;
    0ba6: 3d1dd819;
    0ba7: 3caafa6f;
    0ba8: 3d8e1bdf;
    0ba9: bc3f5427;
    0baa: 3d02168b;
    0bab: 3dd0e830;
    0bac: 3d66f2da;
    0bad: 3dc43b54;
    0bae: 3c0e87b7;
    0baf: 3c6ff6c6;
    0bb0: 3dc50872;
    0bb1: 3c85cd73;
    0bb2: bba0e7fd;
    0bb3: 3c3258d7;
    0bb4: bd46392d;
    0bb5: bc8ef0a8;
    0bb6: be3ded00;
    0bb7: be86f357;
    0bb8: bda005c6;
    0bb9: be2bbce1;
    0bba: bdb64245;
    0bbb: be3ad573;
    0bbc: bd07e6c8;
    0bbd: bd98e584;
    0bbe: 3cec60cb;
    0bbf: 3d0cd2d8;
    0bc0: 3dc407db;
    0bc1: 3e406b27;
    0bc2: be65ce46;
    0bc3: be4e7526;
    0bc4: 3da7bb46;
    0bc5: 3cb782ab;
    0bc6: bd866174;
    0bc7: be2284e6;
    0bc8: bd8045d6;
    0bc9: 3d757804;
    0bca: 3c214baa;
    0bcb: 3d068428;
    0bcc: bdab5000;
    0bcd: bdf77a79;
    0bce: bd5da37f;
    0bcf: 3d6fe6ed;
    0bd0: 3db74fe9;
    0bd1: 3d0454ca;
    0bd2: bd894701;
    0bd3: bc3fbed4;
    0bd4: ba47f2aa;
    0bd5: 3def1362;
    0bd6: 3d878e6d;
    0bd7: be1a6655;
    0bd8: bc55713a;
    0bd9: 3d6db208;
    0bda: 3b4bd0c4;
    0bdb: be0879ab;
    0bdc: be021559;
    0bdd: be25cb7c;
    0bde: 3d3c5e8c;
    0bdf: 3c688473;
    0be0: 3dac284f;
    0be1: 3dcf8607;
    0be2: be2d6fc2;
    0be3: be85409c;
    0be4: bcc80043;
    0be5: 3a80469b;
    0be6: bae3e509;
    0be7: be30e696;
    0be8: be4517d3;
    0be9: bd8f80aa;
    0bea: 3e0e7ebe;
    0beb: 3ca38161;
    0bec: bdc0e39a;
    0bed: bd9afb78;
    0bee: 3d7281a5;
    0bef: 3cbd81c3;
    0bf0: bd20e6dc;
    0bf1: be4666dd;
    0bf2: be963aab;
    0bf3: be9ab40c;
    0bf4: 3d01c1c0;
    0bf5: 3c0ce9b3;
    0bf6: bdf8ffb0;
    0bf7: bdb39531;
    0bf8: 3df8a1b3;
    0bf9: bba68ac0;
    0bfa: 3e7dab82;
    0bfb: 3db7d2d0;
    0bfc: 3dc24dcd;
    0bfd: 3c40a48d;
    0bfe: 3ea8cd3a;
    0bff: 3d5159df;
    0c00: bdc51a81;
    0c01: be2337ea;
    0c02: bdf3ea27;
    0c03: be05a28f;
    0c04: bd412fc9;
    0c05: bd87ebce;
    0c06: bcfdc5dc;
    0c07: 3d86b81a;
    0c08: bd1dee35;
    0c09: 3d64be83;
    0c0a: bd18babe;
    0c0b: 3c901e6d;
    0c0c: 3e1a6460;
    0c0d: 3e0f8f04;
    0c0e: 3d4c51e9;
    0c0f: bdc5621f;
    0c10: be624c77;
    0c11: bdf2933a;
    0c12: bdb8cb6e;
    0c13: be204a83;
    0c14: be17d455;
    0c15: bc7d46b3;
    0c16: 3dd03c6a;
    0c17: 3e0442ad;
    0c18: bddf07ee;
    0c19: 3c9dd3c8;
    0c1a: 3e01b7ed;
    0c1b: 3d34e237;
    0c1c: 3b66d458;
    0c1d: 3dd51058;
    0c1e: 3e162c40;
    0c1f: bc7e3341;
    0c20: bd081141;
    0c21: bc825067;
    0c22: 3d76ce79;
    0c23: 3e4f74ad;
    0c24: bdf7de19;
    0c25: bddd16b1;
    0c26: b8b7ee0e;
    0c27: 3bd614eb;
    0c28: bdd58e77;
    0c29: bc5d1c05;
    0c2a: 3d155fea;
    0c2b: be6a384c;
    0c2c: bdcb3262;
    0c2d: be107870;
    0c2e: bd282049;
    0c2f: 3dd7c00a;
    0c30: bcd5e016;
    0c31: bd05e216;
    0c32: 3e485c5c;
    0c33: 3e550728;
    0c34: bd8fdcdc;
    0c35: bd4e21ea;
    0c36: 3debf96b;
    0c37: 3e5594f9;
    0c38: be496775;
    0c39: bda53e20;
    0c3a: bcd26164;
    0c3b: bdba3e64;
    0c3c: be814354;
    0c3d: bdd11bce;
    0c3e: bdeae780;
    0c3f: bd53b3d2;
    0c40: bdeec76f;
    0c41: be41e7da;
    0c42: bddf8517;
    0c43: bcb9eb08;
    0c44: 3c6f4c29;
    0c45: 3b13e7e7;
    0c46: 3d22dcfe;
    0c47: 3e40b4b8;
    0c48: 3ca5264d;
    0c49: 3d428a24;
    0c4a: 3e4d5c80;
    0c4b: 3d6b695c;
    0c4c: 3a9330b4;
    0c4d: bdc382cd;
    0c4e: 3ce07a2a;
    0c4f: 3d56e2e4;
    0c50: 3df9a74c;
    0c51: 3e791820;
    0c52: 3e50e582;
    0c53: bd215879;
    0c54: 3e2bced9;
    0c55: 3e1144b7;
    0c56: bc46e4a6;
    0c57: be7dd0bf;
    0c58: 3dc34a8e;
    0c59: bd2201d9;
    0c5a: 3ad1d8d4;
    0c5b: bda4577d;
    0c5c: 3cc02643;
    0c5d: bd500596;
    0c5e: bd4da734;
    0c5f: 3d8578ec;
    0c60: bc9582a6;
    0c61: 3d38e775;
    0c62: 3cee2505;
    0c63: 3cbd1d60;
    0c64: bc8642f5;
    0c65: 3d84d91d;
    0c66: 3e103605;
    0c67: 3e0be8bd;
    0c68: bb3178a2;
    0c69: 3d193769;
    0c6a: 3e20ebeb;
    0c6b: be087b25;
    0c6c: bdbd2761;
    0c6d: bd0cb1ad;
    0c6e: 3c1e4915;
    0c6f: be01d862;
    0c70: bd9d526f;
    0c71: bd242e12;
    0c72: bcc2d5d9;
    0c73: bd32ff92;
    0c74: bd3075d0;
    0c75: bda4b7ab;
    0c76: bd5527d8;
    0c77: 3e20b394;
    0c78: bd84a23c;
    0c79: bc990f11;
    0c7a: bda98d0b;
    0c7b: 3dbad2e2;
    0c7c: ba710e64;
    0c7d: 3d608582;
    0c7e: 3e210627;
    0c7f: 3dd00de7;
    0c80: 3da5b693;
    0c81: 3e096163;
    0c82: bcb5f38f;
    0c83: bbaf398d;
    0c84: 3cf7f9b9;
    0c85: bc9aec55;
    0c86: be2d6252;
    0c87: be33a389;
    0c88: 3cb168c6;
    0c89: 3d5a4b04;
    0c8a: bde8e4ef;
    0c8b: bd7f6683;
    0c8c: 3daff0bb;
    0c8d: bd8f255f;
    0c8e: be29a5de;
    0c8f: bdbfcbab;
    0c90: bd79d663;
    0c91: bda0ef4c;
    0c92: bdc75736;
    0c93: bc4e182c;
    0c94: 3c17a5f2;
    0c95: 3b85bd61;
    0c96: 3dc9f8ae;
    0c97: 3e4a8b9d;
    0c98: bdd3c1f0;
    0c99: bc7c61ae;
    0c9a: 3e24af40;
    0c9b: 3de7b5c1;
    0c9c: be580249;
    0c9d: be05be7b;
    0c9e: 3c118ed0;
    0c9f: bd0d2a54;
    0ca0: 3e0fe9ce;
    0ca1: 3e36bd1f;
    0ca2: 3e203246;
    0ca3: 3c86a842;
    0ca4: 3e190d1a;
    0ca5: 3df978da;
    0ca6: 3daa420c;
    0ca7: bdd00c64;
    0ca8: 3d71f606;
    0ca9: bd55bbbe;
    0caa: bdae427d;
    0cab: be729719;
    0cac: bdf988a4;
    0cad: be102564;
    0cae: be395c49;
    0caf: bd07878f;
    0cb0: bdbb575a;
    0cb1: bd69974b;
    0cb2: bcac602c;
    0cb3: 3d6817d2;
    0cb4: be27339e;
    0cb5: bcf6c3a0;
    0cb6: 3e02f9a6;
    0cb7: be362621;
    0cb8: be63f001;
    0cb9: bd8acc6a;
    0cba: bd022385;
    0cbb: 3cff5aba;
    0cbc: 3d08488e;
    0cbd: 3cac6a35;
    0cbe: 3dd98905;
    0cbf: 3da62cae;
    0cc0: 3d1de806;
    0cc1: 3af46a6a;
    0cc2: 3e5e0aa5;
    0cc3: 3dc0bbe9;
    0cc4: 3cfd133b;
    0cc5: bdc62b16;
    0cc6: bb807275;
    0cc7: be8e339e;
    0cc8: be18f780;
    0cc9: 3d3482d6;
    0cca: be246671;
    0ccb: be0b6860;
    0ccc: bcd4bae1;
    0ccd: 3b97b550;
    0cce: bce721e6;
    0ccf: 3cfff0ff;
    0cd0: 3e612a52;
    0cd1: 3e394792;
    0cd2: 3e08879e;
    0cd3: be66134a;
    0cd4: 3deb9c49;
    0cd5: bcb49c0e;
    0cd6: 3d13a899;
    0cd7: be2d7493;
    0cd8: 3e06b27e;
    0cd9: bd5b6aaf;
    0cda: 3956c8e9;
    0cdb: be120aec;
    0cdc: 3d90b9f1;
    0cdd: 3d460c46;
    0cde: be11be65;
    0cdf: bde70aae;
    0ce0: 3dbf4b39;
    0ce1: 38b14c8f;
    0ce2: bd8bef74;
    0ce3: 3c8043a5;
    0ce4: 3c30d32d;
    0ce5: bdbf2fbd;
    0ce6: bcaf2167;
    0ce7: 3c9a1652;
    0ce8: bc8047b3;
    0ce9: be1a4cf4;
    0cea: bd04fe38;
    0ceb: bba96a6f;
    0cec: bd9c8e7f;
    0ced: bd8f2620;
    0cee: 3cc552f0;
    0cef: 3a28dafe;
    0cf0: 3cca9c57;
    0cf1: 3d135053;
    0cf2: bda52574;
    0cf3: bda6426d;
    0cf4: 3d6b6a40;
    0cf5: bd8d627a;
    0cf6: be4e3917;
    0cf7: be1a7a3d;
    0cf8: 3dbd17d0;
    0cf9: bd01cc86;
    0cfa: bde4cce2;
    0cfb: bd99598f;
    0cfc: 3d786151;
    0cfd: 3dacf6dd;
    0cfe: bd9334e4;
    0cff: 3ca9cc9b;
    0d00: bdd1df73;
    0d01: baa642b9;
    0d02: 3bdff63e;
    0d03: 3e24ea60;
    0d04: be156fa7;
    0d05: bdd8b2c3;
    0d06: bd821743;
    0d07: bc0dcce7;
    0d08: be43efcd;
    0d09: be3c17d3;
    0d0a: bd8b5755;
    0d0b: be5446b1;
    0d0c: 3d6007b1;
    0d0d: 3c39e7ac;
    0d0e: 3d45c3a0;
    0d0f: 3bc0cb63;
    0d10: bc0e9621;
    0d11: bd8c5cae;
    0d12: 3c39916e;
    0d13: 3e645b26;
    0d14: be4c5eb2;
    0d15: bdf4cc91;
    0d16: 3c0384de;
    0d17: 3dd18e45;
    0d18: be99a005;
    0d19: be4f6184;
    0d1a: 3c127bdc;
    0d1b: bdd06f8a;
    0d1c: be0fa18e;
    0d1d: bdff7c4b;
    0d1e: bc2adaaf;
    0d1f: bc8da374;
    0d20: bcede832;
    0d21: 3dbcb728;
    0d22: 3e039b27;
    0d23: 3ce2eabe;
    0d24: 3cae121b;
    0d25: bc27a448;
    0d26: bc942e6e;
    0d27: be51e665;
    0d28: 3c963706;
    0d29: bd8b4298;
    0d2a: bd4f78ce;
    0d2b: bdaaedc0;
    0d2c: 3dd688fc;
    0d2d: 3d2d99c1;
    0d2e: be11028f;
    0d2f: bdc268c0;
    0d30: be01208b;
    0d31: bd345691;
    0d32: 3dfb3e41;
    0d33: 3e690e39;
    0d34: be53716e;
    0d35: bd3e82fe;
    0d36: 3d8a9e25;
    0d37: 3daedc63;
    0d38: be997aa2;
    0d39: be12cf25;
    0d3a: 3c655be7;
    0d3b: be2b9a7b;
    0d3c: be1a2518;
    0d3d: be2c776a;
    0d3e: 3d3d5ce0;
    0d3f: 3da739ce;
    0d40: 3d064901;
    0d41: be181c51;
    0d42: be663dee;
    0d43: bd78b561;
    0d44: 3ce0dd7c;
    0d45: be19d095;
    0d46: bdfdd13e;
    0d47: bb936eea;
    0d48: bd1c2328;
    0d49: bcad188b;
    0d4a: bd3bac70;
    0d4b: bd35c0e9;
    0d4c: 3dbc3e7d;
    0d4d: 3dd31d9e;
    0d4e: 3b412678;
    0d4f: 3c00306c;
    0d50: 3c81deb7;
    0d51: 3db5674f;
    0d52: 3da4cb22;
    0d53: bd08a25e;
    0d54: 3d0cde65;
    0d55: 3cb7131d;
    0d56: 3cb76b2c;
    0d57: bd4b3051;
    0d58: 3ca16f94;
    0d59: 3d1ca70f;
    0d5a: 3bf3e1ed;
    0d5b: bd9ebf48;
    0d5c: bdb88138;
    0d5d: beb3dc8e;
    0d5e: be4ff205;
    0d5f: 3d737303;
    0d60: bc0c02b7;
    0d61: 3e2ba43b;
    0d62: 3e2dbe8a;
    0d63: 3d59630d;
    0d64: 3deabecc;
    0d65: 3e37331d;
    0d66: 3df6ed06;
    0d67: bd74483c;
    0d68: bd3183b3;
    0d69: 3cc9e0de;
    0d6a: bc72ebcb;
    0d6b: be177f12;
    0d6c: bda76a0e;
    0d6d: bcb44fc5;
    0d6e: be2ec3c1;
    0d6f: 3ccc173a;
    0d70: bd7e4a1c;
    0d71: bc241834;
    0d72: 3dcb5b87;
    0d73: 3ebc24d2;
    0d74: bda6039f;
    0d75: 3d0ab217;
    0d76: 3d4a1b54;
    0d77: 3e021888;
    0d78: beb975dc;
    0d79: be08b86f;
    0d7a: bd511e04;
    0d7b: bc90ee12;
    0d7c: be91cc08;
    0d7d: be0c9a20;
    0d7e: 3c58504c;
    0d7f: be4bac9b;
    0d80: 3dda7188;
    0d81: 3daa66f2;
    0d82: 3e216f12;
    0d83: bd8ed0b9;
    0d84: 3cc00588;
    0d85: 3d49bd86;
    0d86: bc97e877;
    0d87: bdf414b0;
    0d88: 3cf57ba5;
    0d89: bc23a154;
    0d8a: bdce2eef;
    0d8b: 3d947b14;
    0d8c: bd5e91bf;
    0d8d: bc95356e;
    0d8e: 3d71798f;
    0d8f: bd3e9b22;
    0d90: 3d07e1ba;
    0d91: bc7dfed0;
    0d92: 3e027f31;
    0d93: 3d9dd65d;
    0d94: bd3f4e00;
    0d95: 3d5002a6;
    0d96: 3c99b2a5;
    0d97: be375ef9;
    0d98: bd50f8b3;
    0d99: 3d7baa4d;
    0d9a: bdd9b774;
    0d9b: bcf0c73f;
    0d9c: 3c2aec06;
    0d9d: 3bf27f80;
    0d9e: 3c371f9c;
    0d9f: 3dca06e6;
    0da0: bd554be5;
    0da1: b8dcb1e7;
    0da2: bd2bb825;
    0da3: 3d0f0b95;
    0da4: bde6bb75;
    0da5: 3d5e0b5f;
    0da6: 3dcf3101;
    0da7: 3e27481c;
    0da8: bdc82b19;
    0da9: bbbbef51;
    0daa: 3e32f6c8;
    0dab: bcf8b005;
    0dac: be57e8e4;
    0dad: bb54dfcb;
    0dae: bd10fc96;
    0daf: bbad4c66;
    0db0: 3caee6f2;
    0db1: 3dfe3411;
    0db2: 3e3e9736;
    0db3: 3cd13998;
    0db4: 3d5f2cca;
    0db5: 3dff3011;
    0db6: 3c8905b3;
    0db7: be04dfe1;
    0db8: 3da4d3f1;
    0db9: 3d806f9d;
    0dba: bd99feb5;
    0dbb: be27fb74;
    0dbc: 3c3ddd47;
    0dbd: 3dd6919c;
    0dbe: be17a1ea;
    0dbf: bd36e2b5;
    0dc0: 3dc09acc;
    0dc1: 3cb4b576;
    0dc2: bdad85f8;
    0dc3: bd941b28;
    0dc4: 3d027a0c;
    0dc5: 3c3732ba;
    0dc6: bc9ef0f1;
    0dc7: bdbc7211;
    0dc8: 3dca6cfa;
    0dc9: bd10d02a;
    0dca: bd3c3061;
    0dcb: 3cfe6acb;
    0dcc: 3dbd8fb4;
    0dcd: bd7a4765;
    0dce: bdf746ac;
    0dcf: be1442d0;
    0dd0: 3d2d2605;
    0dd1: 3e0f674d;
    0dd2: 3dd0ab49;
    0dd3: 3cb5f676;
    0dd4: 3df840a0;
    0dd5: 3e08b2b7;
    0dd6: 3c22b20e;
    0dd7: 3d603027;
    0dd8: 3caf87f1;
    0dd9: bbf36226;
    0dda: 3a3e8b9e;
    0ddb: bdeb8caa;
    0ddc: 3d18127c;
    0ddd: 3b75d2d7;
    0dde: 3b1cebdc;
    0ddf: bcd720d2;
    0de0: 3dc2b1ec;
    0de1: 3e0add20;
    0de2: 3c0f7712;
    0de3: bcf6bbe0;
    0de4: 3d9d01e4;
    0de5: 3dda1f59;
    0de6: bde10d08;
    0de7: bddd70d2;
    0de8: b97ef93a;
    0de9: 3db4b206;
    0dea: bcd2a782;
    0deb: bd2a70fa;
    0dec: bd01805f;
    0ded: be6ce79f;
    0dee: be76dce3;
    0def: bcd26920;
    0df0: 3d5c6ed8;
    0df1: 3c692d2f;
    0df2: bdefa235;
    0df3: bd4e6d71;
    0df4: 3ce32099;
    0df5: bbe0a61c;
    0df6: bdba4d47;
    0df7: 3d2a2152;
    0df8: bd13149b;
    0df9: bd1d6c4f;
    0dfa: 3e0463e2;
    0dfb: 3dfb86b0;
    0dfc: 3d036528;
    0dfd: bd76d505;
    0dfe: 3cc0fe04;
    0dff: 3d1a51c1;
    0e00: 3e09fdb5;
    0e01: 3daeaace;
    0e02: 3dbf4bc6;
    0e03: 3ce1fd67;
    0e04: be0d6143;
    0e05: be4a8091;
    0e06: bd3501c1;
    0e07: bc5a6ddf;
    0e08: be328fe7;
    0e09: be141aab;
    0e0a: bd1b2f50;
    0e0b: b9bf16d9;
    0e0c: be832c65;
    0e0d: bd08bac8;
    0e0e: 3d0ac8e7;
    0e0f: be2bacd5;
    0e10: 3e042d29;
    0e11: 3d10e704;
    0e12: 3d8294ba;
    0e13: 3e02a807;
    0e14: bd9782d6;
    0e15: be488419;
    0e16: bb6ef5f0;
    0e17: 3cc2cde9;
    0e18: be090008;
    0e19: bd70e11f;
    0e1a: 3e258abe;
    0e1b: 3d5700b5;
    0e1c: be865253;
    0e1d: be3d2901;
    0e1e: bda75ade;
    0e1f: be37fc8d;
    0e20: 3d48ed44;
    0e21: bd94bbf0;
    0e22: bd07ec0d;
    0e23: bd4460b4;
    0e24: 3ba6d9b6;
    0e25: 3d97c08f;
    0e26: 3dfd16af;
    0e27: bc5aa1f7;
    0e28: 3d6677fc;
    0e29: 3da8eb17;
    0e2a: bd7cd501;
    0e2b: be103a8e;
    0e2c: bc19dea5;
    0e2d: be04116b;
    0e2e: 3da95d43;
    0e2f: 3d5651e8;
    0e30: 3c6834e8;
    0e31: 3e2f8249;
    0e32: 3dbcb880;
    0e33: 3b62bd73;
    0e34: 3ddee4c3;
    0e35: 3ca3f1b9;
    0e36: bdae22f1;
    0e37: 3e4a3eca;
    0e38: 3cf31080;
    0e39: bc9270f4;
    0e3a: 3d3ffcd1;
    0e3b: 3d9ce297;
    0e3c: bc950be9;
    0e3d: be855a52;
    0e3e: 3e092dd3;
    0e3f: bd383c56;
    0e40: 3d83f818;
    0e41: bca3f646;
    0e42: 3d47cc7f;
    0e43: 3cfb3cd1;
    0e44: bcbd2f9c;
    0e45: bdfafed4;
    0e46: 3dafb4eb;
    0e47: bbe8c43e;
    0e48: 3e438742;
    0e49: 3e938afb;
    0e4a: bcab5893;
    0e4b: be305039;
    0e4c: bdb48314;
    0e4d: 3cf5e2eb;
    0e4e: 3bb323c9;
    0e4f: be35bb7d;
    0e50: 3d83f5ed;
    0e51: bb3ba589;
    0e52: bb91bfaa;
    0e53: bd0ebc6b;
    0e54: bd7cbbe7;
    0e55: bc7515b0;
    0e56: bc332abe;
    0e57: 3c8ddea6;
    0e58: bdbf850b;
    0e59: 3e514a42;
    0e5a: bd082e50;
    0e5b: bd7a00e0;
    0e5c: bca23c02;
    0e5d: 3db0d890;
    0e5e: bcb95493;
    0e5f: bd98e9d9;
    0e60: 3b41993d;
    0e61: bd39e448;
    0e62: bd09e034;
    0e63: 3d843ecd;
    0e64: be3616a2;
    0e65: be2e216e;
    0e66: bda1b23f;
    0e67: bcd1c415;
    0e68: bd915052;
    0e69: 3d367523;
    0e6a: 3e21f841;
    0e6b: 3d742779;
    0e6c: bd458125;
    0e6d: be200b16;
    0e6e: 3d331ab8;
    0e6f: 3e25f98f;
    0e70: bcc2b6d8;
    0e71: 3d64944f;
    0e72: 3dd4d71f;
    0e73: 3d6b3100;
    0e74: 3daa8030;
    0e75: bc1926c2;
    0e76: bd66645b;
    0e77: 3d35e700;
    0e78: 3db703e3;
    0e79: 3d6753ae;
    0e7a: bc843a5e;
    0e7b: 3e1c788f;
    0e7c: be558881;
    0e7d: be4b3185;
    0e7e: be34d0c4;
    0e7f: be8d9c95;
    0e80: 3d19e2fe;
    0e81: 3df0e386;
    0e82: bdb2e16d;
    0e83: 3dac0055;
    0e84: 3cb450c1;
    0e85: 3dfcba3a;
    0e86: 3e0fd61f;
    0e87: 3c2c1fbd;
    0e88: 3d0ea2db;
    0e89: bdbd2678;
    0e8a: bd31e70d;
    0e8b: 3c3e7fee;
    0e8c: bd673721;
    0e8d: 3cb1bf96;
    0e8e: 3d744ceb;
    0e8f: bb8af05f;
    0e90: bdc00fdd;
    0e91: 3d9954a1;
    0e92: 3d441ce6;
    0e93: 3cfac4a4;
    0e94: be052704;
    0e95: bc05380a;
    0e96: bd671955;
    0e97: 3d5c6dca;
    0e98: be037136;
    0e99: 3c6f05da;
    0e9a: bdf67c15;
    0e9b: 3c78c2f1;
    0e9c: 3de59ef5;
    0e9d: bdf513dd;
    0e9e: be5a23e0;
    0e9f: beb7923e;
    0ea0: bdc101bd;
    0ea1: be62d7ec;
    0ea2: be0a8226;
    0ea3: 3e0fe017;
    0ea4: 3bbec0e9;
    0ea5: 3e44f535;
    0ea6: 3ce80c81;
    0ea7: bbd670c7;
    0ea8: 3e1757dd;
    0ea9: 3e969d5c;
    0eaa: bcd53fe6;
    0eab: bd51b452;
    0eac: 3dfef344;
    0ead: 3e10cabc;
    0eae: 3d37917a;
    0eaf: bd52a91f;
    0eb0: 3e330df5;
    0eb1: 3e3599c0;
    0eb2: 3d299cb7;
    0eb3: 3d2eebd4;
    0eb4: 3db4a3cc;
    0eb5: 3cd5d27f;
    0eb6: 3ca44276;
    0eb7: be1a031a;
    0eb8: bdae0d4c;
    0eb9: be24bcc6;
    0eba: bbc2a3c4;
    0ebb: 3e601b96;
    0ebc: be2d4608;
    0ebd: be6378e5;
    0ebe: be526fc8;
    0ebf: 3cfa738e;
    0ec0: 3c1c6a91;
    0ec1: 3c9ee183;
    0ec2: bd94f395;
    0ec3: bdf0e50a;
    0ec4: 3cd8fd81;
    0ec5: 3e82705d;
    0ec6: bd58621f;
    0ec7: 3dff18a3;
    0ec8: 3d88e990;
    0ec9: bd8fc51a;
    0eca: 3d83658f;
    0ecb: 3e0c4a37;
    0ecc: 3d6f1544;
    0ecd: 3d11b4cc;
    0ece: bba751d0;
    0ecf: 3d9f55f3;
    0ed0: 3e495168;
    0ed1: 3e0c8fc9;
    0ed2: 3d756401;
    0ed3: 3b4c9b7d;
    0ed4: bd5c8c6e;
    0ed5: 3c49a362;
    0ed6: 3cb5c069;
    0ed7: bd2c79ca;
    0ed8: bd26e17d;
    0ed9: bcdf6240;
    0eda: bd3f9ceb;
    0edb: bcf1e1aa;
    0edc: bdb7d937;
    0edd: bd79f5f9;
    0ede: bc0fca22;
    0edf: bc67f21c;
    0ee0: 3db7d94b;
    0ee1: 3e1aed99;
    0ee2: 3d9d06e6;
    0ee3: bd9ae359;
    0ee4: 3c9af2f0;
    0ee5: 3dd9bdab;
    0ee6: 3dc55ae7;
    0ee7: bc88818b;
    0ee8: 3d9dfd81;
    0ee9: be0a788a;
    0eea: bd858345;
    0eeb: bd49273b;
    0eec: bd0479a3;
    0eed: 3d117a78;
    0eee: bd37b0f5;
    0eef: be65bb2e;
    0ef0: 3b896477;
    0ef1: bba8be2b;
    0ef2: 3cbdc909;
    0ef3: bdf3c6b1;
    0ef4: bc32866a;
    0ef5: bd4bbddc;
    0ef6: 3d7cb0b4;
    0ef7: bcf8e4e9;
    0ef8: 3ddb8c58;
    0ef9: 3e851e8f;
    0efa: bdee25d5;
    0efb: bd6d8a9b;
    0efc: 3df4a0f5;
    0efd: bd126227;
    0efe: 3aa42f8f;
    0eff: bda32423;
    0f00: 3e5f81ce;
    0f01: 3dcdb817;
    0f02: 3ce331c4;
    0f03: bcc7e96d;
    0f04: 3ddb9e3d;
    0f05: 3d49766d;
    0f06: 3e76949e;
    0f07: b92f71bf;
    0f08: 3d8f3553;
    0f09: be7b7c50;
    0f0a: be3aee46;
    0f0b: bbe7a97a;
    0f0c: be5b0153;
    0f0d: be61f0b2;
    0f0e: bdcacbe5;
    0f0f: 3e18a973;
    0f10: 3e02a225;
    0f11: 3e1465f0;
    0f12: 3dfb5e05;
    0f13: 3d2152d6;
    0f14: 3dbaba68;
    0f15: 3d55118f;
    0f16: bd81f773;
    0f17: bdc4e85a;
    0f18: 3d32a4da;
    0f19: bd845866;
    0f1a: 3cb71b34;
    0f1b: 3c2ce54d;
    0f1c: 3c293c73;
    0f1d: be4ede48;
    0f1e: be0ac536;
    0f1f: bca971c0;
    0f20: bc6f80b9;
    0f21: bd7e33f9;
    0f22: be478f9f;
    0f23: bdfb3930;
    0f24: bcd89a6f;
    0f25: b9481417;
    0f26: 3e5462af;
    0f27: 3cf2474b;
    0f28: bcfbbe5a;
    0f29: bd8abd5e;
    0f2a: bce8f515;
    0f2b: 3d4ea11e;
    0f2c: bd516dda;
    0f2d: 3d2974b6;
    0f2e: 3d75b2f0;
    0f2f: bd83c9b9;
    0f30: bd8607f0;
    0f31: 3dd95688;
    0f32: 3d14f965;
    0f33: bd219374;
    0f34: 3dfa86c3;
    0f35: 3d82ef82;
    0f36: 3d02c578;
    0f37: bddc24fb;
    0f38: 3e15778e;
    0f39: bd37dd48;
    0f3a: bda64f62;
    0f3b: bd13594c;
    0f3c: bc294082;
    0f3d: be64f557;
    0f3e: bdcd61d3;
    0f3f: bca8cbae;
    0f40: 3e186bbc;
    0f41: 3df0fd6c;
    0f42: 3d571c04;
    0f43: bc58132a;
    0f44: 3da9f989;
    0f45: bc98d522;
    0f46: bd466d41;
    0f47: bd868ae4;
    0f48: be067c01;
    0f49: bd89e355;
    0f4a: bd96aac0;
    0f4b: bdec188b;
    0f4c: be2a154b;
    0f4d: 3ca5ad04;
    0f4e: bb2b17c9;
    0f4f: be0eb415;
    0f50: be378107;
    0f51: be6c14c2;
    0f52: be1445f3;
    0f53: bc7f221a;
    0f54: 3c13df80;
    0f55: 3e322645;
    0f56: 3dac7df3;
    0f57: bd94c38a;
    0f58: 3da84a9a;
    0f59: 3da6c2c4;
    0f5a: 3e3b9e7d;
    0f5b: 3ce2717e;
    0f5c: 3d8d263d;
    0f5d: 3d004000;
    0f5e: bda454be;
    0f5f: bdf67651;
    0f60: bd8230d8;
    0f61: 3dd426c9;
    0f62: bd0b2f93;
    0f63: 3dcd2ffc;
    0f64: bdb57598;
    0f65: be6314ab;
    0f66: be31b13b;
    0f67: 3db75d81;
    0f68: 3d3950ed;
    0f69: 3e758705;
    0f6a: 39cdac60;
    0f6b: be02825c;
    0f6c: 3d960dad;
    0f6d: 3c88c767;
    0f6e: 3dd949b2;
    0f6f: bbb403d7;
    0f70: 3dda8daf;
    0f71: 3e059b03;
    0f72: 3dd8a2a9;
    0f73: 3d9d5f4c;
    0f74: 3e1fdd83;
    0f75: 3d8b4a62;
    0f76: 3df1814e;
    0f77: bc91a248;
    0f78: bd455adb;
    0f79: bde59831;
    0f7a: 3ebf0f64;
    0f7b: bcd792d7;
    0f7c: bd9f4bca;
    0f7d: be424c9b;
    0f7e: bcdbb06e;
    0f7f: 3ce5763c;
    0f80: 3d131c0e;
    0f81: 3e0594d4;
    0f82: 3dab9dde;
    0f83: bc7074e5;
    0f84: 3e05c13a;
    0f85: 3d4c4227;
    0f86: 3cdb92f8;
    0f87: bcdb19b8;
    0f88: 3dbe6054;
    0f89: 3d593ff4;
    0f8a: 3e0c76e0;
    0f8b: 3d856cad;
    0f8c: bc783a7e;
    0f8d: bd0db4e9;
    0f8e: 3e38c136;
    0f8f: bd478492;
    0f90: bcd3ab9a;
    0f91: bd9ccb44;
    0f92: bd043bc9;
    0f93: 3e645ad9;
    0f94: 3d0d0896;
    0f95: 3df440af;
    0f96: bd9805f1;
    0f97: bd6a1292;
    0f98: 3da826b8;
    0f99: 3c3258b8;
    0f9a: bc8b824b;
    0f9b: 3acea0b9;
    0f9c: bce55273;
    0f9d: bd8833ef;
    0f9e: bd985762;
    0f9f: bd5fb974;
    0fa0: 3dbf2212;
    0fa1: 3c1dc677;
    0fa2: 3c9337a6;
    0fa3: 3d384773;
    0fa4: bdf9439d;
    0fa5: be5f8d0e;
    0fa6: be058e41;
    0fa7: 3dadb2c3;
    0fa8: be29e87f;
    0fa9: be57e2ae;
    0faa: bd9fbeed;
    0fab: 3ce551e0;
    0fac: bdcae007;
    0fad: be6d2ca1;
    0fae: bdc0213e;
    0faf: be05827a;
    0fb0: be116401;
    0fb1: be06ed2d;
    0fb2: bd5ea377;
    0fb3: 3e464f37;
    0fb4: bda9fc0e;
    0fb5: 3c721101;
    0fb6: 3e11a56f;
    0fb7: 3d90e3d9;
    0fb8: 3d109c53;
    0fb9: 3dc7baa0;
    0fba: 3dea9ba2;
    0fbb: bdd4e56c;
    0fbc: bd9f86a0;
    0fbd: 3d411876;
    0fbe: 3d8e9a3c;
    0fbf: bdc32cbc;
    0fc0: 3cf41151;
    0fc1: 3d832136;
    0fc2: 3bcbada6;
    0fc3: 3cf4330c;
    0fc4: bd8a10d4;
    0fc5: bb018147;
    0fc6: 3d8f9abf;
    0fc7: bcd4fb5f;
    0fc8: bd5d8fcc;
    0fc9: 3ce0d633;
    0fca: 3db409d4;
    0fcb: 3b6663b7;
    0fcc: bbdb37cc;
    0fcd: 3d58582f;
    0fce: 3dbe798b;
    0fcf: bd31ffec;
    0fd0: bd273c6c;
    0fd1: be224a77;
    0fd2: bd5a6a34;
    0fd3: bd9364ab;
    0fd4: be082e9c;
    0fd5: bd9f111e;
    0fd6: be2e43fd;
    0fd7: 3bcdad38;
    0fd8: be32029e;
    0fd9: bdc506c7;
    0fda: 3e781f3f;
    0fdb: bc910612;
    0fdc: 3c05cf74;
    0fdd: 3cc04b3a;
    0fde: 3c548d52;
    0fdf: bdc93fc0;
    0fe0: 3d316cf4;
    0fe1: be12c359;
    0fe2: bdce7966;
    0fe3: 3dcfe431;
    0fe4: bdde71df;
    0fe5: 3e1b3977;
    0fe6: 3e274239;
    0fe7: bc49d587;
    0fe8: bcd4bcdb;
    0fe9: 3cacf1bf;
    0fea: 3dab8eef;
    0feb: be06139c;
    0fec: 3d8639c4;
    0fed: 3db74e87;
    0fee: 3e24529b;
    0fef: 3dc02d0a;
    0ff0: 3e28d37d;
    0ff1: 3e4e7e81;
    0ff2: 3d5e7c8a;
    0ff3: bd1e4285;
    0ff4: 3dd04c9b;
    0ff5: 3cddeb6e;
    0ff6: bda5079f;
    0ff7: bd802942;
    0ff8: 3d3aa206;
    0ff9: 3cae45ee;
    0ffa: bd46354e;
    0ffb: 3ce9a2b3;
    0ffc: bc1e5162;
    0ffd: 3d2659e0;
    0ffe: be187be3;
    0fff: bdd0ff59;
    1000: 3ca36f36;
    1001: 3d800e30;
    1002: bd8c566a;
    1003: 3d7c9b8d;
    1004: 3e44c3a1;
    1005: 3e5a5002;
    1006: 3d1ec016;
    1007: bd51b979;
    1008: 3d066036;
    1009: 3e0ca59b;
    100a: 3db10409;
    100b: 3dca894b;
    100c: 3c9fa3df;
    100d: bdc7f97a;
    100e: bc3ea55b;
    100f: be33ca44;
    1010: 3ce1d751;
    1011: bbec91eb;
    1012: bc741d4e;
    1013: 3d257695;
    1014: 3e411483;
    1015: be5f8070;
    1016: 3da5cda4;
    1017: bb0b2ec0;
    1018: bd94c869;
    1019: bca61773;
    101a: 3e0f8b19;
    101b: bd7a13a7;
    101c: 3db934f9;
    101d: bcdd275d;
    101e: 3d992ca2;
    101f: 3cf404ee;
    1020: bcd176a6;
    1021: bd61cbb9;
    1022: bdeec0b8;
    1023: bdc8e30e;
    1024: bdbc04fb;
    1025: be2a34c3;
    1026: bdeae9d5;
    1027: 3d41d580;
    1028: bd9d8515;
    1029: be014e64;
    102a: 3e11825a;
    102b: 3de6ab6f;
    102c: bdee19f2;
    102d: bd16ba7b;
    102e: bc96c831;
    102f: bd4ee8df;
    1030: bda7fed8;
    1031: 3d66d77f;
    1032: 3d9f0c29;
    1033: 3d0d09aa;
    1034: 3e08f69b;
    1035: 3cf10a72;
    1036: 3db1c397;
    1037: 3ca0623d;
    1038: bd364c86;
    1039: bdf18a49;
    103a: 3d734ce1;
    103b: 3e50ec50;
    103c: be12636f;
    103d: 3d97cc8b;
    103e: 3c511842;
    103f: bd3d0147;
    1040: 3dcabb1b;
    1041: 3d8ebac6;
    1042: bc088e08;
    1043: 3e299113;
    1044: bd7ccb36;
    1045: 3d07a906;
    1046: bcf510c8;
    1047: 3c1986bc;
    1048: bdcd085f;
    1049: 3d0194ab;
    104a: bd90ea1c;
    104b: 3d9d2b16;
    104c: 3d5b6dac;
    104d: 3c15e1d2;
    104e: be4154e7;
    104f: bdc61898;
    1050: bd9faf7a;
    1051: bd2a52e7;
    1052: bb99f8fb;
    1053: 3d6a8148;
    1054: bd1fad2e;
    1055: 3db4cfcb;
    1056: be060832;
    1057: bda196e6;
    1058: bcb33f30;
    1059: be403bd8;
    105a: be25781f;
    105b: bcf57e26;
    105c: bdccb2b0;
    105d: bd2f7d5b;
    105e: bc3aaaf2;
    105f: 3e37eea5;
    1060: 3d2357b4;
    1061: 3b3afde1;
    1062: bbc14081;
    1063: bdff702a;
    1064: 3d784ab5;
    1065: bca8204c;
    1066: bc5cdd21;
    1067: bb11d8dd;
    1068: 3de978a8;
    1069: be21be3c;
    106a: be1be6e0;
    106b: bd57b6df;
    106c: 3e4479e1;
    106d: 3e0050e8;
    106e: 3c7959dd;
    106f: bd790170;
    1070: 3bbdf65c;
    1071: bdba2c09;
    1072: bda0a2dd;
    1073: 3d553883;
    1074: be0472e1;
    1075: bc864918;
    1076: be00713d;
    1077: 3e2dfbba;
    1078: bd645a05;
    1079: bd075af4;
    107a: 3dbc4b35;
    107b: bce7c879;
    107c: 3e330c35;
    107d: 3d970168;
    107e: 3c89a4d4;
    107f: 3d2edd70;
    1080: 3bf4149d;
    1081: 3d898068;
    1082: bca57822;
    1083: bd260d2c;
    1084: 3d38eb27;
    1085: 3d94b736;
    1086: bcf491d5;
    1087: bdb91843;
    1088: 3ca8a288;
    1089: 3d60cce1;
    108a: be242429;
    108b: bdfff375;
    108c: 3cab2c6b;
    108d: 3e2d265c;
    108e: be0d2f12;
    108f: bcae55a5;
    1090: 3d118936;
    1091: 3c90c5c3;
    1092: bdb8c600;
    1093: bce56da3;
    1094: 3d862ee0;
    1095: 3dc992c1;
    1096: 3e43eafb;
    1097: 3de653df;
    1098: 3e470428;
    1099: 3db94e5a;
    109a: 3c568c8a;
    109b: 3c245727;
    109c: bda3479f;
    109d: bd8b2550;
    109e: bd9351e0;
    109f: bd34b687;
    10a0: 3d21a36a;
    10a1: 3e0375c5;
    10a2: 3dbd2942;
    10a3: bd3204ed;
    10a4: be1a1885;
    10a5: bd596dba;
    10a6: be017662;
    10a7: 3dd46c04;
    10a8: 3d1ea2d8;
    10a9: bcdc40b1;
    10aa: bd80683d;
    10ab: 3c83f8d7;
    10ac: 3e109452;
    10ad: bdb15f3f;
    10ae: be833a8d;
    10af: 3d2315d1;
    10b0: bdc42e3f;
    10b1: bd31ab00;
    10b2: 3c107d45;
    10b3: 3d2bbc15;
    10b4: bd6c9cfe;
    10b5: bd6ab1af;
    10b6: 3da43185;
    10b7: 3d051053;
    10b8: bd88a3b5;
    10b9: bda42f46;
    10ba: 3e1ef7c3;
    10bb: bde113ed;
    10bc: be32da2f;
    10bd: bd439b1a;
    10be: 3d3a7cbd;
    10bf: 3cf82fd9;
    10c0: bd50940c;
    10c1: bda9ce6b;
    10c2: bde0b93d;
    10c3: bdcaa859;
    10c4: 3dc5419d;
    10c5: bcbd9782;
    10c6: be1a987d;
    10c7: 3d8928ce;
    10c8: 3c81b104;
    10c9: 3dcfe2d4;
    10ca: be50b3ef;
    10cb: bd0bba73;
    10cc: be508a62;
    10cd: bed37966;
    10ce: bec1948f;
    10cf: 3df10945;
    10d0: bd30b5bb;
    10d1: bb6151d4;
    10d2: be0ceac5;
    10d3: bd648394;
    10d4: 3d98fddc;
    10d5: 3d646853;
    10d6: bc22c1d1;
    10d7: bd895efe;
    10d8: bc40881e;
    10d9: bd94d4da;
    10da: 3da86073;
    10db: bdc73997;
    10dc: 3dd8e663;
    10dd: 3d9cf12d;
    10de: bdcaa3fe;
    10df: bdadf8e7;
    10e0: 3deadda7;
    10e1: 3dbde35b;
    10e2: bc8bec26;
    10e3: 3d0edead;
    10e4: 3d3ba422;
    10e5: 3cc92817;
    10e6: bbf9e6c8;
    10e7: be4f27fb;
    10e8: 3c9bd4a9;
    10e9: 3d91c4b0;
    10ea: 3c9735da;
    10eb: 3dfa57dc;
    10ec: 3da179d9;
    10ed: 3dcd9336;
    10ee: bd9acf49;
    10ef: 3bfd2035;
    10f0: bc347853;
    10f1: bd39ad82;
    10f2: 3d72e58f;
    10f3: bacb9400;
    10f4: 3d828e16;
    10f5: 3df8bb9f;
    10f6: bd2a6e50;
    10f7: be0d5df4;
    10f8: bdc3aa39;
    10f9: 3e06a25c;
    10fa: bcfdc8df;
    10fb: 3ce4cef5;
    10fc: 3e0b0dab;
    10fd: 3ca68cab;
    10fe: be4ce301;
    10ff: be5a2ef9;
    1100: bd58d993;
    1101: bdfda2c5;
    1102: bdd8562e;
    1103: be7db778;
    1104: be0817ab;
    1105: be1f1f5c;
    1106: bde80958;
    1107: 3cc37320;
    1108: be4ef18f;
    1109: bdd32f1f;
    110a: bab0a81d;
    110b: bcb06e94;
    110c: bda566f3;
    110d: bd7b2785;
    110e: be3332a7;
    110f: be73de83;
    1110: bc2168f5;
    1111: ba9d5371;
    1112: bd1e452e;
    1113: bdaeca6c;
    1114: 3de4b99d;
    1115: be665534;
    1116: be45410c;
    1117: be208ef4;
    1118: bda0b7af;
    1119: be9224c8;
    111a: 3c6fa89b;
    111b: 3d20d863;
    111c: be6322c4;
    111d: be44427d;
    111e: 3ce38aa8;
    111f: bdee77b7;
    1120: 3e04800e;
    1121: 3d95b9a4;
    1122: 3ca24e35;
    1123: bd4b1b6e;
    1124: 3cdebd57;
    1125: 3d3b489d;
    1126: be526d04;
    1127: 3d4d3788;
    1128: 3d318f7a;
    1129: 3e10b4a9;
    112a: bbf41a76;
    112b: bd9e8ac3;
    112c: 3da8173b;
    112d: bd476bf3;
    112e: be69598e;
    112f: 3e17fd60;
    1130: bc828348;
    1131: 3d1c73a7;
    1132: bcb6b9d0;
    1133: bd23d470;
    1134: 3d83feb4;
    1135: bdc03e19;
    1136: bdc9d22c;
    1137: 3da07484;
    1138: bbdfa3f5;
    1139: be0f876b;
    113a: 3db2054c;
    113b: 3e0735c6;
    113c: beb00374;
    113d: bdb83af7;
    113e: bc4f622d;
    113f: 3d39b023;
    1140: bdb63580;
    1141: 3de6c119;
    1142: bd4f7f9d;
    1143: 3d03e8f0;
    1144: 3e3e612d;
    1145: 3e5a9c86;
    1146: 3ca3d2b1;
    1147: bccc9a47;
    1148: 3dd5b938;
    1149: 3e3397dd;
    114a: 3df23018;
    114b: 3e02c8f1;
    114c: bdd81909;
    114d: bc6dcd34;
    114e: bdecadee;
    114f: bdd3baa7;
    1150: 3db44288;
    1151: 3cb1e74f;
    1152: be302614;
    1153: bd18bcf8;
    1154: bcf78cd0;
    1155: bdf00697;
    1156: bda62ac0;
    1157: 3d9ba574;
    1158: 3e096355;
    1159: 3e0b25be;
    115a: 3d441397;
    115b: be4848c4;
    115c: 3e0976a8;
    115d: be7c7381;
    115e: be15c56c;
    115f: 3e009abb;
    1160: bdc11025;
    1161: 3cfe7d85;
    1162: bd6b7d5c;
    1163: 3c72e81a;
    1164: be1b1b3d;
    1165: bdb1c4f6;
    1166: bcf4018f;
    1167: bc263a67;
    1168: bd1571c1;
    1169: be06d233;
    116a: be264cc3;
    116b: 3c04afa9;
    116c: be3aeef3;
    116d: 3d3a7b85;
    116e: bdf9ca1b;
    116f: 3d9cc3a0;
    1170: bd1145c5;
    1171: 3d9cb7c3;
    1172: 3d118faa;
    1173: bdb4cd6f;
    1174: 3d3ded30;
    1175: bcc5bac7;
    1176: bd8cd6f0;
    1177: be741580;
    1178: bd60cdaa;
    1179: be35ca47;
    117a: bcdde7e7;
    117b: be039de2;
    117c: be97d0b2;
    117d: be25e720;
    117e: bc920335;
    117f: be48a399;
    1180: bd8570fb;
    1181: bd10ace3;
    1182: bdd07663;
    1183: bd31b79e;
    1184: 3d02c779;
    1185: 3e2188ca;
    1186: bdd200df;
    1187: be23ecdc;
    1188: 3d689de4;
    1189: bda04be6;
    118a: be376176;
    118b: bb7c54ba;
    118c: bdc4ec41;
    118d: bde63bce;
    118e: bcca9d9f;
    118f: 3e3f7d06;
    1190: 3dc405cc;
    1191: bbccbfe7;
    1192: bc6be8bb;
    1193: bb1dd61b;
    1194: bd4c383b;
    1195: bd976b4c;
    1196: 3db730ec;
    1197: 3e4a22bd;
    1198: bb8fba0c;
    1199: 3e87d0dc;
    119a: 3c81a07c;
    119b: 3e6e3f1d;
    119c: 3da4e287;
    119d: bd1cbd67;
    119e: be1ad06d;
    119f: bcf19299;
    11a0: 3d2751f6;
    11a1: 3de18a98;
    11a2: bd0b753e;
    11a3: 3c95573d;
    11a4: 3e2fa177;
    11a5: 3e3613f0;
    11a6: bb8a338a;
    11a7: 3c4bbed3;
    11a8: 3be26ac0;
    11a9: bd4de681;
    11aa: bdd58416;
    11ab: 3e03fda2;
    11ac: 3d67a22f;
    11ad: 3cf5c95d;
    11ae: be06952f;
    11af: bd3d57b3;
    11b0: 3e01bb16;
    11b1: 3d9eef1b;
    11b2: bceeac62;
    11b3: 3d8fdd70;
    11b4: 3c16398f;
    11b5: 3acdaa08;
    11b6: bcf13bca;
    11b7: 3e0983f0;
    11b8: 3b00a62e;
    11b9: 3d98c0f9;
    11ba: be1645ea;
    11bb: bd8314f1;
    11bc: 3e1be4a4;
    11bd: 3da0b6e3;
    11be: be1af5e5;
    11bf: 3c58c600;
    11c0: 3cc4dcc5;
    11c1: 3c2791a9;
    11c2: 3e2e0b13;
    11c3: 3ddab2f2;
    11c4: 3d5ff95f;
    11c5: 3e25aa50;
    11c6: bd5d0aec;
    11c7: bdfaff79;
    11c8: 3d25acc7;
    11c9: be0e2dc1;
    11ca: be7f4430;
    11cb: bded14c3;
    11cc: 3de0cb91;
    11cd: bd6bd021;
    11ce: be00a1fe;
    11cf: bd3a28eb;
    11d0: 3df3cc73;
    11d1: 3b9c31ad;
    11d2: bdc9d280;
    11d3: 3d874aa1;
    11d4: 3a4a8223;
    11d5: 38cf298c;
    11d6: bd9caa7f;
    11d7: 3d5e4b00;
    11d8: 3db73ab5;
    11d9: bb33e26c;
    11da: 3d8294a9;
    11db: be627408;
    11dc: 3d65b1cd;
    11dd: 3cfb6a46;
    11de: be0eed98;
    11df: bd95bd75;
    11e0: bc982820;
    11e1: be30a4bd;
    11e2: 3d36cf4e;
    11e3: 3d2c281c;
    11e4: 3d7f6874;
    11e5: 3d8730a2;
    11e6: bd386df1;
    11e7: bda2ee4b;
    11e8: 3e9cbab8;
    11e9: 3b10002f;
    11ea: bb6c5c7d;
    11eb: bdbbffea;
    11ec: 3d8ec1fa;
    11ed: bea260ff;
    11ee: bdc6444a;
    11ef: 3cb6eb9d;
    11f0: bd866cc6;
    11f1: be2ea8ab;
    11f2: bc9c6eb9;
    11f3: 3d61f4ba;
    11f4: bdd5e745;
    11f5: bdeb9f51;
    11f6: be60464c;
    11f7: bd9fb724;
    11f8: bdac4b8b;
    11f9: bdb088c0;
    11fa: be630b76;
    11fb: bb2be6d9;
    11fc: bda58314;
    11fd: be192a92;
    11fe: 3e13b739;
    11ff: 3e73ab76;
    1200: bd043691;
    1201: 3c8be801;
    1202: 3cace947;
    1203: 3d248d3e;
    1204: 3ce8c833;
    1205: bbac2366;
    1206: 3d1267e3;
    1207: 3b00307d;
    1208: bd01b34d;
    1209: bcd278ac;
    120a: bcd1f8fc;
    120b: bc355d0f;
    120c: bd4e6176;
    120d: bccc6816;
    120e: bd48aed8;
    120f: 3c21c146;
    1210: bd3ba156;
    1211: bba583f4;
    1212: bcea715e;
    1213: bc04dcb0;
    1214: 3cbb9245;
    1215: 3c33d1d1;
    1216: bd5351d2;
    1217: bd0db441;
    1218: bcf65f31;
    1219: 3be0c8df;
    121a: bc48de6e;
    121b: bc298a14;
    121c: 3ce08e3a;
    121d: bceffca5;
    121e: bcdbe06b;
    121f: 3ccaa89e;
    1220: 3d08c757;
    1221: 3d000e3e;
    1222: 3d10c9b3;
    1223: bcd45a66;
    1224: bba8f051;
    1225: 3d184f4b;
    1226: 3cd993b8;
    1227: bcd2b01c;
    1228: bd1ce9cd;
    1229: 3caee409;
    122a: 3cc8ae69;
    122b: bd142819;
    122c: bcfd994a;
    122d: 3cc1274d;
    122e: bd41f539;
    122f: 3a7b3959;
    1230: 3ca1bf17;
    1231: ba7c3656;
    1232: bb60b8a0;
    1233: 3c86e9fe;
    1234: 3c516805;
    1235: bc0c1dab;
    1236: bcbcb9b8;
    1237: bccf326e;
    1238: 3c8893ff;
    1239: 3c5fe009;
    123a: 3cbed036;
    123b: 3bed35c0;
    123c: bce22421;
    123d: 3c8024a7;
    123e: bc1579f7;
    123f: bc96a895;
    1240: 3ccc4f32;
    1241: bbc0b7ee;
    1242: bbb0ffd3;
    1243: 3c7722a0;
    1244: bd1bd6e2;
    1245: 3c32bb14;
    1246: bcac4666;
    1247: 3cbbaad8;
    1248: 3d0519ff;
    1249: bb09a810;
    124a: bd09ec39;
    124b: bbf15b75;
    124c: bd1048d2;
    124d: 3c3f2d79;
    124e: 3c97fef7;
    124f: 3c0ef200;
    1250: bd368a8b;
    1251: bcc011d9;
    1252: bc14d687;
    1253: 3cb493b3;
    1254: ba19d0a6;
    1255: 3c85aea6;
    1256: bc087f80;
    1257: bc8a3c54;
    1258: bc816d96;
    1259: 3c98b217;
    125a: bd31411d;
    125b: bbdcf6ff;
    125c: 3d13bd42;
    125d: bd38ec0c;
    125e: 3ccc8657;
    125f: bd2dbfb1;
    1260: 3ce707b8;
    1261: bd28b140;
    1262: 3cd6efac;
    1263: 3d024a90;
    1264: bd2d804e;
    1265: bd446f63;
    1266: 3c562a91;
    1267: bc9beac2;
    1268: 3c8b0ddc;
    1269: bce243ed;
    126a: 3b8f93da;
    126b: 3bcf8ee1;
    126c: bcab45b9;
    126d: b9762934;
    126e: 3ccfd0cc;
    126f: 3c2c0249;
    1270: bcf0caee;
    1271: bd411cef;
    1272: 3b4e323e;
    1273: 3cf3aa05;
    1274: 3c89f463;
    1275: bd1c7cec;
    1276: bc26445e;
    1277: bcde889c;
    1278: bbe105f7;
    1279: 3cae442d;
    127a: bd215804;
    127b: bc1e4e39;
    127c: bba2b6cc;
    127d: 3bf44995;
    127e: bc54e11a;
    127f: bcc0258d;
    1280: 3cfb3010;
    1281: bcc409ac;
    1282: bcdc2720;
    1283: bc056704;
    1284: 3c75162c;
    1285: bcf8b0a7;
    1286: 3d0d8843;
    1287: bc581c5f;
    1288: 3c573750;
    1289: 3cece248;
    128a: bd3bf91b;
    128b: 3cf944ef;
    128c: bc7ab7ac;
    128d: 3cd2d63f;
    128e: 3c2ad57f;
    128f: bc0640e4;
    1290: bd08074e;
    1291: b957fe03;
    1292: 3c76007b;
    1293: 3caeec3b;
    1294: 3cef9473;
    1295: 3cf1662b;
    1296: bd2965df;
    1297: 3d1cd3b5;
    1298: 3ba06e01;
    1299: bd026d36;
    129a: bd37d819;
    129b: 3d09a481;
    129c: bcb5b634;
    129d: 3bf8d2bd;
    129e: bcf1d6c2;
    129f: bd434f8d;
    12a0: 3cc12818;
    12a1: bd17ecb8;
    12a2: 3b904d3b;
    12a3: 3d1ad4ce;
    12a4: 3d14c882;
    12a5: 3c31c88b;
    12a6: bcb8a2ca;
    12a7: bd2a4170;
    12a8: bcb19faf;
    12a9: bc9e1593;
    12aa: 3d29ec83;
    12ab: bc9321aa;
    12ac: bd340cca;
    12ad: bb03480a;
    12ae: bd14711b;
    12af: bbe21359;
    12b0: bcdcd480;
    12b1: 3ced5c83;
    12b2: bcb5f0d8;
    12b3: bcbe8a72;
    12b4: 3d27dd5d;
    12b5: 3ce19b05;
    12b6: bbc31be4;
    12b7: bd2913ac;
    12b8: 3c23b9cc;
    12b9: 3cfa9be4;
    12ba: 3d01a073;
    12bb: bce2b393;
    12bc: bd36118b;
    12bd: bd115b1b;
    12be: bd4191c4;
    12bf: 3c796716;
    12c0: bcedf9ef;
    12c1: 3b8f3411;
    12c2: 3d1a5fd7;
    12c3: 3c6274c5;
    12c4: bd225e34;
    12c5: bb0b1f8b;
    12c6: 3d18e333;
    12c7: 3bd0b385;
    12c8: bbe3c6d9;
    12c9: 3d0dcf57;
    12ca: bd24e1e0;
    12cb: bca509bb;
    12cc: ba8d140a;
    12cd: 3ce25c3d;
    12ce: bca1ff5f;
    12cf: bcdc46c9;
    12d0: bd2f3081;
    12d1: bd2e4857;
    12d2: 3c582af1;
    12d3: bcef6c07;
    12d4: 3b480868;
    12d5: 3c17a077;
    12d6: 3c3e52d6;
    12d7: bd428653;
    12d8: 3c8f6e42;
    12d9: bc9f8800;
    12da: bc90a634;
    12db: bc3708fa;
    12dc: bd3b2909;
    12dd: bc037e8e;
    12de: 3c60e4a9;
    12df: bd3559d0;
    12e0: bceb3ec4;
    12e1: bd197913;
    12e2: bcec18bf;
    12e3: bcc7510f;
    12e4: 3cde3c98;
    12e5: 3bbe9406;
    12e6: 3c9c470e;
    12e7: bd264967;
    12e8: bcf96a25;
    12e9: bd19f295;
    12ea: 3cd06c5d;
    12eb: bd413ecf;
    12ec: bd3ef2a2;
    12ed: bc3118fa;
    12ee: 3a8ebf5f;
    12ef: 3ba8d05c;
    12f0: bc4219d5;
    12f1: baaab548;
    12f2: 3b791215;
    12f3: 3c214756;
    12f4: bc92c327;
    12f5: 3cc77260;
    12f6: bb1cadbd;
    12f7: 3c94c68d;
    12f8: 3bf5089d;
    12f9: bcecb7a4;
    12fa: bcc52039;
    12fb: bce98b62;
    12fc: bc639048;
    12fd: bb74a6bb;
    12fe: bc369e32;
    12ff: 3cf1c751;
    1300: 3d1845d4;
    1301: 3c054864;
    1302: b9fd26d6;
    1303: bcf2e3e4;
    1304: 3cdc5f85;
    1305: bcc74dcc;
    1306: bd1db097;
    1307: 3ca23359;
    1308: 3cd94883;
    1309: 3c9bbed3;
    130a: 3b58cf90;
    130b: bcb64b9c;
    130c: 3cb69406;
    130d: 3d0be44e;
    130e: 3c557f92;
    130f: 3c9a8b7a;
    1310: bcbcf28e;
    1311: 3c80133a;
    1312: bcaadb38;
    1313: bc8165c0;
    1314: 3c61da17;
    1315: 3c37d40e;
    1316: 3cb82337;
    1317: bc277ffa;
    1318: bc5fb8b9;
    1319: 3ab54332;
    131a: 3c960b0e;
    131b: 3b828bba;
    131c: bd0f8184;
    131d: 3d0c9d24;
    131e: 3c4800e3;
    131f: 3c30db72;
    1320: bc693c0c;
    1321: 3d0bcddc;
    1322: bb1fd9c9;
    1323: ba9bc3fb;
    1324: 3c50012b;
    1325: bc1d93c8;
    1326: 3b499b92;
    1327: ba9a5799;
    1328: 3b55f255;
    1329: bb89733b;
    132a: bcfaea34;
    132b: bc7f3f60;
    132c: 3cf06ee9;
    132d: 3ca6845c;
    132e: bc42dee8;
    132f: b94d8049;
    1330: bcfa8e9b;
    1331: 3d025513;
    1332: bd36a15a;
    1333: 3cab641d;
    1334: 3cf1355c;
    1335: 3be72d9c;
    1336: 3c90367a;
    1337: bd361f13;
    1338: bc81b53d;
    1339: bcd1e201;
    133a: 3c95a6a3;
    133b: bd262681;
    133c: bcf2a197;
    133d: 3c5773c4;
    133e: 3bc90ee9;
    133f: bd45b06f;
    1340: 3ce0c041;
    1341: 3cb33a9a;
    1342: 3b7996fb;
    1343: 3ade403b;
    1344: bd259b50;
    1345: bd478258;
    1346: bd303bb1;
    1347: bd16d024;
    1348: bd0524b9;
    1349: bcd9766e;
    134a: 3d1a62b6;
    134b: bd452636;
    134c: 3cfa9341;
    134d: 3cfa8526;
    134e: b9d2067b;
    134f: bb82ddc5;
    1350: 3c1bbb33;
    1351: 3a2a90f4;
    1352: bd0dd8b9;
    1353: bd1103ac;
    1354: 3d15ffe6;
    1355: bc8e5d13;
    1356: 3cc10630;
    1357: 3c82f96e;
    1358: bcd98074;
    1359: bbc8a509;
    135a: bc33501f;
    135b: 3d28960d;
    135c: 3a231533;
    135d: 3c3f2d0c;
    135e: bcf6009e;
    135f: bcbe0a94;
    1360: bd163600;
    1361: 3c8ffa07;
    1362: bd2187ff;
    1363: 3c707278;
    1364: 3ca60b23;
    1365: 3be3235e;
    1366: bc6fda0e;
    1367: 3cb1dd8e;
    1368: bd08df7f;
    1369: 3cce6770;
    136a: b9924ce1;
    136b: bd2d44ea;
    136c: 3c3c863c;
    136d: bcec7613;
    136e: 3d01f0e2;
    136f: bd22584a;
    1370: 3cd8078b;
    1371: 3bf05d31;
    1372: bd3764b3;
    1373: 3c6e2ef2;
    1374: bc944ba2;
    1375: 3c4c4efc;
    1376: 3b2f5ef5;
    1377: bccd53d7;
    1378: 3c0c025d;
    1379: bcd66dde;
    137a: bc2b96dc;
    137b: bb86d6c5;
    137c: 3ca10d03;
    137d: 3b96cf69;
    137e: bd2fdb81;
    137f: 3c93c808;
    1380: bbefd9be;
    1381: bce8db3c;
    1382: 3d27a8f7;
    1383: 3b8eef43;
